<pad>	0
<unk>	0
<s>	0
</s>	0
<sep>	0
<cls>	0
▁t	-0
▁a	-1
he	-2
in	-3
er	-4
▁s	-5
on	-6
▁the	-7
re	-8
▁w	-9
ed	-10
an	-11
en	-12
or	-13
▁f	-14
▁c	-15
is	-16
▁b	-17
ar	-18
at	-19
ing	-20
▁o	-21
it	-22
▁in	-23
as	-24
▁h	-25
es	-26
al	-27
▁to	-28
▁p	-29
nd	-30
ou	-31
▁of	-32
▁m	-33
▁.	-34
ic	-35
▁d	-36
il	-37
▁T	-38
id	-39
le	-40
▁and	-41
▁S	-42
om	-43
ay	-44
▁C	-45
▁A	-46
ion	-47
st	-48
ent	-49
ol	-50
am	-51
▁M	-52
▁on	-53
▁re	-54
el	-55
▁th	-56
▁n	-57
▁l	-58
▁be	-59
ur	-60
ac	-61
ad	-62
ot	-63
ter	-64
▁for	-65
▁B	-66
▁g	-67
ut	-68
ve	-69
▁he	-70
ig	-71
▁The	-72
ow	-73
ir	-74
▁st	-75
▁was	-76
im	-77
▁P	-78
▁at	-79
▁e	-80
et	-81
ver	-82
ill	-83
▁is	-84
▁I	-85
ith	-86
▁L	-87
▁H	-88
ly	-89
▁F	-90
▁with	-91
ro	-92
▁W	-93
us	-94
ec	-95
ri	-96
▁R	-97
▁his	-98
ear	-99
ag	-100
▁D	-101
▁2	-102
▁sa	-103
▁N	-104
▁wh	-105
un	-106
▁1	-107
and	-108
ain	-109
ld	-110
os	-111
▁said	-112
ers	-113
▁an	-114
ort	-115
ce	-116
▁as	-117
▁has	-118
ation	-119
▁G	-120
▁E	-121
▁J	-122
▁fr	-123
ch	-124
igh	-125
est	-126
ul	-127
ak	-128
▁"	-129
▁al	-130
▁that	-131
em	-132
pp	-133
▁ha	-134
ew	-135
▁r	-136
her	-137
ore	-138
▁from	-139
th	-140
▁con	-141
▁y	-142
▁it	-143
ast	-144
op	-145
▁af	-146
▁se	-147
▁de	-148
day	-149
up	-150
▁pl	-151
▁sh	-152
ight	-153
ra	-154
our	-155
▁after	-156
ack	-157
ice	-158
▁v	-159
▁ch	-160
▁O	-161
ok	-162
▁U	-163
00	-164
▁by	-165
if	-166
▁have	-167
ist	-168
▁are	-169
▁k	-170
all	-171
end	-172
▁le	-173
art	-174
ard	-175
▁(	-176
res	-177
um	-178
▁com	-179
od	-180
▁'	-181
▁K	-182
▁ac	-183
▁-	-184
▁will	-185
▁off	-186
ere	-187
▁sp	-188
ate	-189
ord	-190
▁cl	-191
ia	-192
ide	-193
ant	-194
ee	-195
ity	-196
ab	-197
▁ag	-198
ub	-199
ue	-200
▁been	-201
▁j	-202
oc	-203
oun	-204
red	-205
ap	-206
▁were	-207
se	-208
ust	-209
old	-210
gh	-211
ound	-212
ies	-213
▁not	-214
▁St	-215
▁ex	-216
port	-217
ess	-218
▁go	-219
NN	-220
qu	-221
▁who	-222
ost	-223
ted	-224
ud	-225
▁this	-226
ment	-227
▁whe	-228
▁tr	-229
ber	-230
ie	-231
ell	-232
ial	-233
und	-234
ive	-235
▁--	-236
ian	-237
out	-238
▁Ch	-239
own	-240
▁out	-241
mer	-242
▁pro	-243
ome	-244
▁had	-245
▁but	-246
▁ar	-247
▁20	-248
iv	-249
wo	-250
uc	-251
ff	-252
▁their	-253
ould	-254
▁her	-255
▁V	-256
▁man	-257
olice	-258
ich	-259
▁play	-260
ace	-261
▁ab	-262
ine	-263
to	-264
ry	-265
ong	-266
ge	-267
▁year	-268
▁up	-269
ident	-270
oll	-271
man	-272
che	-273
▁3	-274
amp	-275
ren	-276
year	-277
ond	-278
ime	-279
▁say	-280
ame	-281
▁cont	-282
▁He	-283
ans	-284
▁In	-285
,"	-286
▁acc	-287
ts	-288
▁201	-289
ail	-290
▁un	-291
ree	-292
ary	-293
ough	-294
ign	-295
▁Th	-296
▁two	-297
ip	-298
av	-299
ions	-300
age	-301
ict	-302
ey	-303
ated	-304
▁over	-305
▁one	-306
▁they	-307
▁last	-308
ick	-309
▁report	-310
ous	-311
▁wor	-312
▁lo	-313
▁new	-314
land	-315
▁him	-316
▁Le	-317
▁sc	-318
▁te	-319
ason	-320
▁when	-321
so	-322
ake	-323
ure	-324
▁again	-325
irst	-326
▁res	-327
▁New	-328
ep	-329
▁app	-330
▁att	-331
▁we	-332
ass	-333
ug	-334
ire	-335
urn	-336
ect	-337
▁inc	-338
ark	-339
▁she	-340
eek	-341
ile	-342
▁ne	-343
▁ad	-344
▁comp	-345
CNN	-346
▁It	-347
▁or	-348
▁Un	-349
ited	-350
▁first	-351
ft	-352
oy	-353
ik	-354
▁offic	-355
▁Y	-356
ier	-357
▁win	-358
▁also	-359
ther	-360
▁cr	-361
ount	-362
▁police	-363
og	-364
ish	-365
ite	-366
▁which	-367
rid	-368
ton	-369
▁Al	-370
▁rec	-371
▁about	-372
oin	-373
▁pr	-374
ov	-375
▁exp	-376
▁against	-377
are	-378
one	-379
▁season	-380
▁Ar	-381
ach	-382
▁pe	-383
▁into	-384
▁fin	-385
esday	-386
▁week	-387
orn	-388
uring	-389
ople	-390
▁4	-391
▁can	-392
▁sec	-393
▁all	-394
ational	-395
▁Br	-396
▁gr	-397
▁dis	-398
▁im	-399
▁Man	-400
▁su	-401
arg	-402
ting	-403
ild	-404
ague	-405
ress	-406
iz	-407
▁time	-408
fore	-409
ng	-410
ording	-411
ied	-412
▁inter	-413
▁more	-414
ose	-415
oot	-416
ade	-417
."	-418
iss	-419
▁back	-420
▁us	-421
ove	-422
▁show	-423
▁people	-424
ash	-425
▁club	-426
iver	-427
ool	-428
enc	-429
ib	-430
ven	-431
▁before	-432
ance	-433
we	-434
▁mon	-435
▁inj	-436
▁United	-437
▁than	-438
▁CNN	-439
ally	-440
▁kn	-441
act	-442
ince	-443
▁told	-444
iel	-445
ob	-446
▁down	-447
als	-448
under	-449
▁5	-450
▁during	-451
hed	-452
ence	-453
ath	-454
▁team	-455
▁fl	-456
other	-457
ster	-458
outh	-459
▁ro	-460
▁car	-461
▁me	-462
aw	-463
▁19	-464
ates	-465
atch	-466
aus	-467
▁three	-468
ens	-469
ved	-470
ured	-471
▁do	-472
▁qu	-473
▁Mar	-474
ang	-475
▁part	-476
ely	-477
▁co	-478
med	-479
way	-480
▁says	-481
▁def	-482
▁200	-483
▁its	-484
▁League	-485
ct	-486
▁other	-487
ase	-488
▁Mon	-489
son	-490
very	-491
▁official	-492
▁pre	-493
▁sign	-494
▁6	-495
ull	-496
▁would	-497
▁per	-498
ors	-499
▁Sp	-500
reat	-501
▁according	-502
ock	-503
▁just	-504
▁you	-505
▁ser	-506
ement	-507
ood	-508
able	-509
▁op	-510
▁day	-511
illion	-512
▁being	-513
▁bl	-514
ield	-515
alk	-516
▁so	-517
ory	-518
▁bec	-519
▁br	-520
ations	-521
ater	-522
▁could	-523
atur	-524
▁Cup	-525
▁inv	-526
ition	-527
ital	-528
pl	-529
▁ret	-530
ters	-531
oss	-532
▁years	-533
ious	-534
▁kill	-535
▁work	-536
▁found	-537
000	-538
▁home	-539
▁An	-540
▁min	-541
▁tak	-542
anc	-543
▁Wor	-544
oup	-545
ne	-546
▁under	-547
ward	-548
,000	-549
▁Re	-550
▁four	-551
▁look	-552
▁Eng	-553
.'	-554
▁side	-555
ning	-556
aturday	-557
eng	-558
▁made	-559
▁thr	-560
ott	-561
for	-562
ities	-563
rest	-564
▁Saturday	-565
▁World	-566
ham	-567
rib	-568
▁no	-569
▁City	-570
urs	-571
ike	-572
▁Af	-573
br	-574
▁them	-575
▁ear	-576
ical	-577
▁dec	-578
xt	-579
unday	-580
▁Sunday	-581
au	-582
▁month	-583
▁cap	-584
The	-585
▁second	-586
ner	-587
▁get	-588
▁set	-589
▁Police	-590
ink	-591
▁Sh	-592
▁fe	-593
rem	-594
ames	-595
▁reported	-596
io	-597
ered	-598
▁act	-599
▁now	-600
lud	-601
▁some	-602
▁bo	-603
leg	-604
ane	-605
▁wom	-606
ollow	-607
rik	-608
▁attack	-609
▁am	-610
▁But	-611
▁7	-612
▁She	-613
chester	-614
ult	-615
▁rem	-616
▁while	-617
ings	-618
ife	-619
ina	-620
▁since	-621
ased	-622
amil	-623
ank	-624
ause	-625
▁call	-626
▁mil	-627
ix	-628
ving	-629
▁str	-630
▁bel	-631
▁hel	-632
ph	-633
▁Manchester	-634
▁train	-635
ork	-636
▁ph	-637
fer	-638
les	-639
▁includ	-640
▁want	-641
ind	-642
ected	-643
▁there	-644
hel	-645
▁10	-646
▁left	-647
uth	-648
▁spok	-649
ampions	-650
ating	-651
▁start	-652
vent	-653
▁near	-654
▁arrest	-655
▁England	-656
ah	-657
uck	-658
▁stat	-659
field	-660
ced	-661
national	-662
ss	-663
sea	-664
▁And	-665
az	-666
▁injur	-667
▁Bar	-668
ons	-669
▁former	-670
▁head	-671
▁Monday	-672
▁bet	-673
resident	-674
▁Sc	-675
ember	-676
enal	-677
ope	-678
osp	-679
▁Tu	-680
vel	-681
▁count	-682
orth	-683
pt	-684
▁manag	-685
irl	-686
riday	-687
▁Tuesday	-688
▁Friday	-689
▁did	-690
▁mid	-691
▁end	-692
riend	-693
▁des	-694
▁Z	-695
▁strik	-696
air	-697
side	-698
▁join	-699
▁child	-700
▁what	-701
▁sur	-702
▁through	-703
▁Q	-704
ale	-705
sh	-706
▁South	-707
▁where	-708
rent	-709
▁charg	-710
▁next	-711
uthor	-712
▁Jo	-713
ley	-714
▁dr	-715
▁return	-716
eep	-717
▁By	-718
▁night	-719
▁vict	-720
▁vide	-721
▁Fr	-722
▁rele	-723
▁Wed	-724
▁lead	-725
▁en	-726
▁follow	-727
tain	-728
▁world	-729
ty	-730
▁killed	-731
▁spokes	-732
▁only	-733
▁add	-734
▁Wedn	-735
▁Wednesday	-736
▁med	-737
▁any	-738
uss	-739
ave	-740
▁game	-741
ene	-742
ubl	-743
pped	-744
tle	-745
wn	-746
ospital	-747
▁conf	-748
▁appear	-749
ric	-750
pool	-751
▁move	-752
▁statement	-753
usp	-754
▁star	-755
▁Ars	-756
▁deal	-757
ather	-758
▁post	-759
▁dri	-760
▁miss	-761
▁take	-762
ared	-763
over	-764
▁Car	-765
ents	-766
▁8	-767
ex	-768
oth	-769
elf	-770
estig	-771
▁then	-772
▁video	-773
▁ass	-774
▁help	-775
ency	-776
uary	-777
hn	-778
led	-779
▁Prem	-780
▁famil	-781
▁Cl	-782
ursday	-783
▁Thursday	-784
▁around	-785
▁ann	-786
▁susp	-787
ourt	-788
▁tra	-789
▁contr	-790
ball	-791
duc	-792
▁tri	-793
▁if	-794
▁took	-795
▁pass	-796
sp	-797
▁my	-798
▁air	-799
▁foot	-800
cc	-801
ise	-802
ern	-803
mit	-804
ched	-805
ele	-806
▁West	-807
▁score	-808
ral	-809
▁trans	-810
▁imp	-811
▁Premier	-812
▁For	-813
▁Liver	-814
▁De	-815
▁like	-816
▁see	-817
▁Wh	-818
▁Liverpool	-819
erson	-820
augh	-821
▁Chel	-822
▁reg	-823
▁cent	-824
▁belie	-825
▁sum	-826
▁sm	-827
▁most	-828
uthorities	-829
aim	-830
ady	-831
ont	-832
▁run	-833
▁right	-834
ody	-835
▁arrested	-836
ween	-837
▁died	-838
▁Chelsea	-839
▁Is	-840
▁won	-841
▁top	-842
meric	-843
ful	-844
▁Bl	-845
▁Arsenal	-846
▁between	-847
hip	-848
▁final	-849
▁gu	-850
▁five	-851
ird	-852
▁investig	-853
▁Champions	-854
ves	-855
▁fire	-856
ble	-857
ram	-858
ribut	-859
▁rep	-860
▁make	-861
▁incident	-862
▁9	-863
▁international	-864
ned	-865
rist	-866
▁Inter	-867
▁group	-868
▁place	-869
▁Ro	-870
▁officials	-871
▁Mad	-872
▁woman	-873
,'	-874
▁death	-875
com	-876
bs	-877
▁because	-878
▁Ger	-879
ook	-880
▁hit	-881
▁still	-882
▁At	-883
ling	-884
▁may	-885
by	-886
▁gover	-887
-1	-888
▁striker	-889
ened	-890
imes	-891
aking	-892
▁manager	-893
ublic	-894
▁rel	-895
▁state	-896
cel	-897
gan	-898
ision	-899
ought	-900
▁cur	-901
hen	-902
▁fil	-903
▁alleg	-904
▁hospital	-905
▁York	-906
app	-907
iam	-908
nment	-909
▁claim	-910
▁Ju	-911
▁family	-912
▁summer	-913
ona	-914
ouse	-915
▁loc	-916
ll	-917
▁six	-918
▁12	-919
▁way	-920
▁country	-921
oung	-922
▁midfield	-923
ets	-924
▁mov	-925
▁cons	-926
▁taken	-927
te	-928
▁happ	-929
▁pict	-930
ures	-931
▁Americ	-932
▁friend	-933
▁bu	-934
alif	-935
▁high	-936
▁2013	-937
▁Eur	-938
ico	-939
▁15	-940
▁Brit	-941
▁vi	-942
ines	-943
rew	-944
▁face	-945
▁milit	-946
▁hand	-947
▁how	-948
▁well	-949
any	-950
raz	-951
ual	-952
▁leg	-953
▁long	-954
▁defend	-955
▁We	-956
▁million	-957
ness	-958
▁match	-959
▁Mc	-960
ying	-961
▁know	-962
istan	-963
alf	-964
ives	-965
ium	-966
ms	-967
▁loan	-968
artment	-969
▁resp	-970
▁announ	-971
▁another	-972
▁training	-973
▁11	-974
▁disc	-975
▁ve	-976
▁Ind	-977
▁players	-978
▁Jan	-979
elebr	-980
▁even	-981
▁injury	-982
▁news	-983
▁Ad	-984
▁News	-985
▁Se	-986
▁em	-987
▁supp	-988
ison	-989
ald	-990
ck	-991
▁dead	-992
▁Fl	-993
▁spokesman	-994
▁our	-995
▁played	-996
▁Aust	-997
▁away	-998
▁phot	-999
pr	-1000
▁Dav	-1001
ants	-1002
ross	-1003
▁sent	-1004
emb	-1005
▁bre	-1006
▁Madrid	-1007
▁sl	-1008
▁Sw	-1009
▁char	-1010
chool	-1011
inal	-1012
ues	-1013
▁poin	-1014
▁sub	-1015
ondon	-1016
▁prov	-1017
▁later	-1018
cess	-1019
ony	-1020
ugg	-1021
▁called	-1022
▁Gr	-1023
▁Ser	-1024
▁government	-1025
▁midfielder	-1026
▁war	-1027
▁London	-1028
▁ter	-1029
▁bus	-1030
▁minut	-1031
▁May	-1032
▁girl	-1033
uch	-1034
▁celebr	-1035
▁John	-1036
ists	-1037
▁Ital	-1038
▁remain	-1039
▁following	-1040
aul	-1041
lear	-1042
▁shot	-1043
▁including	-1044
▁squ	-1045
We	-1046
used	-1047
▁comm	-1048
▁current	-1049
form	-1050
▁boy	-1051
self	-1052
▁player	-1053
head	-1054
urg	-1055
▁ind	-1056
▁fac	-1057
▁contin	-1058
ins	-1059
ister	-1060
▁young	-1061
▁very	-1062
omb	-1063
▁scored	-1064
til	-1065
▁recent	-1066
▁18	-1067
roll	-1068
ised	-1069
razil	-1070
▁men	-1071
▁mar	-1072
▁released	-1073
▁Count	-1074
▁city	-1075
▁They	-1076
▁good	-1077
▁contribut	-1078
str	-1079
▁Brazil	-1080
▁Ham	-1081
▁wr	-1082
▁stud	-1083
per	-1084
▁alleged	-1085
riv	-1086
▁As	-1087
▁put	-1088
▁sever	-1089
line	-1090
-0	-1091
▁days	-1092
ai	-1093
enn	-1094
amed	-1095
ces	-1096
▁On	-1097
▁both	-1098
▁Pr	-1099
▁che	-1100
▁care	-1101
att	-1102
oon	-1103
ular	-1104
tion	-1105
▁All	-1106
▁your	-1107
▁ext	-1108
..	-1109
▁until	-1110
aj	-1111
▁One	-1112
▁expl	-1113
▁Park	-1114
ible	-1115
▁best	-1116
▁record	-1117
▁court	-1118
▁injured	-1119
eral	-1120
▁own	-1121
▁seen	-1122
▁area	-1123
▁fans	-1124
ever	-1125
▁came	-1126
▁German	-1127
ued	-1128
▁No	-1129
▁2012	-1130
▁Real	-1131
▁Col	-1132
ering	-1133
▁hour	-1134
▁event	-1135
▁January	-1136
ches	-1137
▁num	-1138
▁County	-1139
▁went	-1140
▁16	-1141
wit	-1142
ances	-1143
ama	-1144
▁going	-1145
▁authorities	-1146
ax	-1147
▁30	-1148
ices	-1149
min	-1150
It	-1151
ired	-1152
ED	-1153
▁president	-1154
der	-1155
▁charged	-1156
▁dep	-1157
▁children	-1158
▁beh	-1159
▁rece	-1160
▁ES	-1161
lect	-1162
orning	-1163
ept	-1164
vice	-1165
▁come	-1166
▁suff	-1167
▁confir	-1168
▁got	-1169
▁goals	-1170
▁every	-1171
▁open	-1172
ages	-1173
▁ask	-1174
▁person	-1175
▁Com	-1176
▁camp	-1177
▁comment	-1178
million	-1179
hes	-1180
▁contributed	-1181
eth	-1182
ower	-1183
▁third	-1184
▁vis	-1185
EO	-1186
ecut	-1187
vers	-1188
▁keep	-1189
▁life	-1190
▁turn	-1191
▁Austral	-1192
▁need	-1193
▁det	-1194
▁along	-1195
▁big	-1196
urity	-1197
eal	-1198
▁Will	-1199
▁Russ	-1200
ics	-1201
▁13	-1202
▁beat	-1203
▁football	-1204
▁Co	-1205
▁25	-1206
▁EST	-1207
▁ent	-1208
▁games	-1209
ho	-1210
lier	-1211
ger	-1212
ange	-1213
▁talk	-1214
▁known	-1215
▁morning	-1216
ret	-1217
inger	-1218
▁goal	-1219
▁land	-1220
▁interest	-1221
▁Gu	-1222
▁iss	-1223
▁del	-1224
▁forward	-1225
ived	-1226
▁Mil	-1227
co	-1228
▁ahead	-1229
▁squad	-1230
▁tit	-1231
▁should	-1232
▁defender	-1233
right	-1234
osed	-1235
tern	-1236
▁aff	-1237
▁Christ	-1238
ann	-1239
▁sn	-1240
▁public	-1241
uper	-1242
▁law	-1243
ael	-1244
celona	-1245
▁school	-1246
▁ref	-1247
▁don	-1248
▁Europe	-1249
ided	-1250
▁14	-1251
▁times	-1252
▁Barcelona	-1253
orm	-1254
ished	-1255
▁David	-1256
go	-1257
hern	-1258
▁watch	-1259
▁contract	-1260
▁av	-1261
ized	-1262
ones	-1263
cast	-1264
▁dif	-1265
▁victim	-1266
une	-1267
eat	-1268
▁int	-1269
▁comple	-1270
▁bro	-1271
▁fight	-1272
▁Off	-1273
ke	-1274
els	-1275
istr	-1276
▁Afric	-1277
af	-1278
▁months	-1279
▁Tr	-1280
ately	-1281
▁great	-1282
▁North	-1283
▁think	-1284
▁having	-1285
▁President	-1286
▁flight	-1287
▁sk	-1288
▁many	-1289
▁reve	-1290
▁compet	-1291
alth	-1292
▁Ste	-1293
▁boss	-1294
ino	-1295
▁announced	-1296
▁reports	-1297
▁21	-1298
▁coach	-1299
▁ord	-1300
▁cond	-1301
▁Har	-1302
icle	-1303
▁Mich	-1304
▁Scroll	-1305
its	-1306
▁company	-1307
ivers	-1308
▁poss	-1309
▁used	-1310
▁Ph	-1311
que	-1312
▁This	-1313
ump	-1314
▁least	-1315
resent	-1316
▁stand	-1317
▁several	-1318
▁Pe	-1319
ana	-1320
▁Am	-1321
▁occ	-1322
▁Min	-1323
▁expected	-1324
▁early	-1325
▁Cr	-1326
ility	-1327
▁Lu	-1328
vious	-1329
ained	-1330
▁giv	-1331
iting	-1332
▁victory	-1333
ales	-1334
▁gun	-1335
▁sw	-1336
▁those	-1337
raw	-1338
▁Dep	-1339
▁Red	-1340
▁Mr	-1341
esc	-1342
▁host	-1343
▁Ge	-1344
▁military	-1345
ote	-1346
▁Ang	-1347
enham	-1348
irect	-1349
▁17	-1350
olog	-1351
▁find	-1352
▁Air	-1353
▁short	-1354
▁feat	-1355
ief	-1356
▁same	-1357
▁Dec	-1358
▁posted	-1359
▁minutes	-1360
▁Be	-1361
▁behind	-1362
amer	-1363
▁rest	-1364
▁shoot	-1365
▁Pal	-1366
▁conc	-1367
witter	-1368
uel	-1369
▁held	-1370
▁sex	-1371
▁local	-1372
▁Mex	-1373
▁col	-1374
▁El	-1375
▁Rep	-1376
▁passeng	-1377
onald	-1378
oring	-1379
▁full	-1380
▁number	-1381
▁Ab	-1382
▁reveal	-1383
▁Twitter	-1384
▁signed	-1385
▁playing	-1386
lin	-1387
rench	-1388
▁How	-1389
▁spe	-1390
embers	-1391
▁mother	-1392
▁himself	-1393
▁Stud	-1394
ified	-1395
▁plane	-1396
▁build	-1397
▁prom	-1398
▁charges	-1399
▁oper	-1400
ready	-1401
▁body	-1402
▁hold	-1403
▁looking	-1404
illa	-1405
lo	-1406
▁prot	-1407
ID	-1408
▁spec	-1409
▁far	-1410
▁lost	-1411
▁test	-1412
▁French	-1413
AT	-1414
ney	-1415
back	-1416
▁already	-1417
▁today	-1418
▁added	-1419
▁earlier	-1420
▁half	-1421
ession	-1422
ington	-1423
aun	-1424
▁here	-1425
▁produc	-1426
ush	-1427
▁veh	-1428
▁does	-1429
mber	-1430
▁joined	-1431
▁Aug	-1432
▁Tott	-1433
▁currently	-1434
ually	-1435
▁suc	-1436
▁son	-1437
▁199	-1438
IS	-1439
emp	-1440
ense	-1441
▁fail	-1442
▁pol	-1443
ative	-1444
▁2014	-1445
▁Afgh	-1446
▁women	-1447
▁old	-1448
ars	-1449
▁dog	-1450
ior	-1451
▁targ	-1452
▁invol	-1453
▁scene	-1454
▁seven	-1455
merg	-1456
ried	-1457
get	-1458
▁spot	-1459
▁There	-1460
▁His	-1461
▁shows	-1462
▁agency	-1463
▁injuries	-1464
aid	-1465
ston	-1466
▁mat	-1467
ards	-1468
earch	-1469
▁arri	-1470
▁media	-1471
▁water	-1472
ovember	-1473
ops	-1474
▁24	-1475
▁Par	-1476
▁plan	-1477
▁American	-1478
▁Angel	-1479
▁members	-1480
▁past	-1481
aff	-1482
ats	-1483
▁fell	-1484
▁crash	-1485
▁round	-1486
▁British	-1487
let	-1488
▁gl	-1489
left	-1490
▁August	-1491
▁France	-1492
▁2011	-1493
▁much	-1494
▁weeks	-1495
▁prog	-1496
ection	-1497
▁November	-1498
pite	-1499
▁late	-1500
▁pos	-1501
adium	-1502
▁Sam	-1503
oke	-1504
▁miles	-1505
IDEO	-1506
ute	-1507
▁hop	-1508
▁National	-1509
▁22	-1510
▁VIDEO	-1511
▁hours	-1512
▁Afghan	-1513
▁due	-1514
▁pop	-1515
▁taking	-1516
cl	-1517
ention	-1518
▁webs	-1519
▁front	-1520
▁Two	-1521
▁December	-1522
▁En	-1523
▁Tottenham	-1524
▁100	-1525
▁Ale	-1526
▁Calif	-1527
my	-1528
▁ev	-1529
▁lit	-1530
▁caus	-1531
ris	-1532
▁eff	-1533
▁few	-1534
▁clear	-1535
▁confirmed	-1536
▁title	-1537
mitted	-1538
▁Student	-1539
▁sold	-1540
▁China	-1541
▁Californ	-1542
cent	-1543
ended	-1544
vi	-1545
▁Ne	-1546
uled	-1547
▁March	-1548
-2	-1549
▁Kore	-1550
▁Sy	-1551
▁sit	-1552
▁July	-1553
▁opp	-1554
▁started	-1555
▁inf	-1556
▁drug	-1557
▁transfer	-1558
▁officers	-1559
akes	-1560
▁Cent	-1561
▁such	-1562
▁break	-1563
▁signing	-1564
ford	-1565
▁mark	-1566
▁repl	-1567
▁California	-1568
▁June	-1569
▁direct	-1570
aign	-1571
aren	-1572
▁free	-1573
▁San	-1574
▁Port	-1575
▁form	-1576
▁accident	-1577
ogra	-1578
eared	-1579
▁ident	-1580
▁website	-1581
▁without	-1582
aby	-1583
▁ball	-1584
▁Mart	-1585
▁You	-1586
▁yet	-1587
▁exper	-1588
▁Span	-1589
▁security	-1590
▁ins	-1591
▁leave	-1592
▁La	-1593
▁requ	-1594
▁tour	-1595
▁case	-1596
▁eight	-1597
gent	-1598
▁wife	-1599
▁success	-1600
ili	-1601
▁William	-1602
▁Pro	-1603
▁van	-1604
aving	-1605
▁stay	-1606
mp	-1607
▁sy	-1608
Th	-1609
▁Paul	-1610
aged	-1611
▁saw	-1612
▁ago	-1613
▁national	-1614
▁Her	-1615
▁lot	-1616
▁Department	-1617
ille	-1618
▁cust	-1619
EW	-1620
▁tro	-1621
▁ground	-1622
▁Ir	-1623
▁Rob	-1624
▁wind	-1625
ung	-1626
book	-1627
een	-1628
▁campaign	-1629
▁mus	-1630
▁deb	-1631
▁coup	-1632
overed	-1633
▁film	-1634
ending	-1635
ror	-1636
reen	-1637
ashed	-1638
▁viol	-1639
▁each	-1640
▁States	-1641
▁driver	-1642
▁investigation	-1643
ray	-1644
ific	-1645
▁saf	-1646
oman	-1647
▁50	-1648
aced	-1649
oo	-1650
medi	-1651
▁close	-1652
▁Bel	-1653
▁Ever	-1654
▁coll	-1655
▁pick	-1656
▁across	-1657
▁accused	-1658
▁previous	-1659
▁office	-1660
▁allegedly	-1661
▁Oc	-1662
▁proble	-1663
▁walk	-1664
▁ap	-1665
▁Acc	-1666
▁name	-1667
▁career	-1668
▁points	-1669
weet	-1670
▁Spain	-1671
▁23	-1672
▁asked	-1673
▁support	-1674
ajor	-1675
▁met	-1676
▁Me	-1677
apan	-1678
▁Bay	-1679
▁0	-1680
▁mom	-1681
▁road	-1682
ij	-1683
▁Fe	-1684
ridge	-1685
▁art	-1686
tober	-1687
▁meet	-1688
▁making	-1689
▁target	-1690
SA	-1691
▁Argent	-1692
ler	-1693
▁Pak	-1694
▁Sept	-1695
▁house	-1696
▁Michael	-1697
▁Championship	-1698
wards	-1699
▁pull	-1700
▁October	-1701
▁outside	-1702
ety	-1703
ressed	-1704
▁After	-1705
▁Or	-1706
▁Ben	-1707
▁too	-1708
ament	-1709
▁Japan	-1710
▁doc	-1711
▁Mail	-1712
▁real	-1713
▁James	-1714
ury	-1715
ploy	-1716
▁immedi	-1717
reed	-1718
reated	-1719
BC	-1720
▁27	-1721
▁action	-1722
▁revealed	-1723
itness	-1724
▁didn	-1725
▁Sport	-1726
reet	-1727
ians	-1728
ask	-1729
▁Ronald	-1730
pril	-1731
▁given	-1732
gin	-1733
▁suffered	-1734
▁lik	-1735
▁race	-1736
▁father	-1737
▁el	-1738
▁som	-1739
▁April	-1740
▁inside	-1741
He	-1742
aughter	-1743
onn	-1744
▁September	-1745
▁allow	-1746
atic	-1747
idd	-1748
▁Lou	-1749
▁appro	-1750
FA	-1751
oci	-1752
avy	-1753
off	-1754
▁lat	-1755
▁Pakistan	-1756
▁Em	-1757
aily	-1758
▁dam	-1759
▁perfor	-1760
unn	-1761
▁emerg	-1762
▁release	-1763
▁Ed	-1764
▁use	-1765
▁weekend	-1766
ape	-1767
▁2010	-1768
▁view	-1769
▁series	-1770
▁thought	-1771
▁par	-1772
ached	-1773
▁ban	-1774
▁Face	-1775
▁Milan	-1776
▁26	-1777
▁list	-1778
bert	-1779
time	-1780
▁book	-1781
▁saying	-1782
▁Inst	-1783
castle	-1784
▁Ag	-1785
▁chall	-1786
▁charge	-1787
▁couple	-1788
formation	-1789
▁po	-1790
▁European	-1791
▁Germany	-1792
),	-1793
▁Ob	-1794
▁fall	-1795
▁laun	-1796
▁hom	-1797
ten	-1798
▁Los	-1799
▁others	-1800
▁Geor	-1801
▁X	-1802
▁Mor	-1803
▁among	-1804
▁Newcastle	-1805
▁missing	-1806
▁Dan	-1807
ators	-1808
iness	-1809
▁anim	-1810
▁crew	-1811
▁named	-1812
▁occur	-1813
▁Facebook	-1814
▁believed	-1815
ands	-1816
▁pay	-1817
▁Jack	-1818
▁defeat	-1819
▁appeared	-1820
▁happened	-1821
aded	-1822
ides	-1823
▁dem	-1824
▁bomb	-1825
▁trying	-1826
▁Everton	-1827
ys	-1828
▁picture	-1829
aring	-1830
▁baby	-1831
▁consid	-1832
▁officer	-1833
▁champions	-1834
▁capt	-1835
▁south	-1836
▁Pl	-1837
▁Sch	-1838
▁captain	-1839
iving	-1840
▁appearances	-1841
▁FA	-1842
ially	-1843
▁coun	-1844
▁differ	-1845
▁Ira	-1846
elt	-1847
▁Fer	-1848
ects	-1849
▁i	-1850
▁spent	-1851
be	-1852
▁hot	-1853
▁Alex	-1854
▁mur	-1855
▁cer	-1856
▁ple	-1857
▁Iraq	-1858
ech	-1859
▁line	-1860
▁little	-1861
▁prison	-1862
▁threat	-1863
ighb	-1864
ampion	-1865
PD	-1866
▁able	-1867
▁decision	-1868
▁quest	-1869
▁working	-1870
mon	-1871
▁Italian	-1872
view	-1873
work	-1874
▁Mexico	-1875
▁Former	-1876
▁Australia	-1877
▁crit	-1878
▁park	-1879
gr	-1880
▁tw	-1881
▁Tra	-1882
ways	-1883
▁Day	-1884
▁resc	-1885
▁wound	-1886
bruary	-1887
▁began	-1888
▁camer	-1889
▁carry	-1890
▁never	-1891
▁medical	-1892
▁According	-1893
▁net	-1894
▁desc	-1895
▁Rod	-1896
▁gen	-1897
▁page	-1898
▁travel	-1899
oud	-1900
▁dro	-1901
orter	-1902
▁wear	-1903
▁north	-1904
sc	-1905
ida	-1906
imb	-1907
▁Villa	-1908
▁major	-1909
▁serious	-1910
▁February	-1911
mar	-1912
itch	-1913
▁fore	-1914
▁inst	-1915
▁read	-1916
▁Angeles	-1917
reg	-1918
▁40	-1919
ience	-1920
.5	-1921
▁fur	-1922
▁International	-1923
ox	-1924
aut	-1925
raft	-1926
kn	-1927
▁hard	-1928
▁Gl	-1929
▁site	-1930
ampton	-1931
unity	-1932
▁press	-1933
▁received	-1934
▁information	-1935
inho	-1936
▁Obama	-1937
▁State	-1938
▁hope	-1939
eck	-1940
ini	-1941
▁let	-1942
▁really	-1943
▁region	-1944
BL	-1945
gy	-1946
▁Ga	-1947
▁TV	-1948
▁eng	-1949
▁Louis	-1950
▁become	-1951
▁whether	-1952
PR	-1953
riff	-1954
ault	-1955
ject	-1956
▁Val	-1957
▁prep	-1958
▁sing	-1959
▁money	-1960
▁vehicle	-1961
cer	-1962
▁Italy	-1963
▁winning	-1964
▁leaving	-1965
ript	-1966
wood	-1967
▁power	-1968
▁wanted	-1969
▁est	-1970
▁hum	-1971
▁treat	-1972
▁using	-1973
▁latest	-1974
▁However	-1975
▁link	-1976
▁tourn	-1977
oard	-1978
ream	-1979
con	-1980
▁Wash	-1981
▁NEW	-1982
aught	-1983
▁conv	-1984
▁station	-1985
▁Flor	-1986
▁looks	-1987
ederal	-1988
iga	-1989
ming	-1990
▁mod	-1991
ays	-1992
▁Sm	-1993
▁Sec	-1994
ett	-1995
▁Mo	-1996
▁visit	-1997
▁sto	-1998
▁That	-1999
▁ow	-2000
ator	-2001
lymp	-2002
▁Gaal	-2003
elling	-2004
▁wants	-2005
▁War	-2006
iversity	-2007
▁Washington	-2008
ze	-2009
rab	-2010
▁Olymp	-2011
▁scoring	-2012
▁role	-2013
▁small	-2014
▁sport	-2015
ism	-2016
the	-2017
uture	-2018
lam	-2019
▁Ass	-2020
▁cover	-2021
▁shooting	-2022
aster	-2023
▁explos	-2024
▁occurred	-2025
▁room	-2026
▁Offic	-2027
▁chance	-2028
▁search	-2029
▁capital	-2030
ient	-2031
pping	-2032
▁Florida	-2033
▁program	-2034
noon	-2035
▁tweet	-2036
▁returned	-2037
▁dou	-2038
iff	-2039
ries	-2040
▁Black	-2041
▁strugg	-2042
▁service	-2043
ising	-2044
friend	-2045
ailable	-2046
▁Afghanistan	-2047
ano	-2048
iger	-2049
▁neighb	-2050
▁mot	-2051
▁red	-2052
▁Spanish	-2053
▁afternoon	-2054
30	-2055
▁Ex	-2056
▁wat	-2057
▁league	-2058
▁fourth	-2059
▁champion	-2060
▁must	-2061
▁ship	-2062
▁Court	-2063
▁claimed	-2064
▁Su	-2065
▁cut	-2066
▁teen	-2067
aps	-2068
▁wa	-2069
▁sim	-2070
▁health	-2071
aur	-2072
arter	-2073
▁give	-2074
▁Can	-2075
ert	-2076
ily	-2077
itions	-2078
ocked	-2079
▁board	-2080
fic	-2081
▁elect	-2082
▁passengers	-2083
▁Op	-2084
▁despite	-2085
▁daughter	-2086
▁tournament	-2087
▁comes	-2088
▁level	-2089
▁pat	-2090
▁town	-2091
orters	-2092
▁future	-2093
ks	-2094
oma	-2095
▁gave	-2096
▁nine	-2097
unt	-2098
▁Mark	-2099
▁draw	-2100
▁Africa	-2101
▁believe	-2102
▁building	-2103
▁Mal	-2104
▁esc	-2105
▁pair	-2106
ara	-2107
▁28	-2108
most	-2109
▁adv	-2110
▁bid	-2111
▁job	-2112
▁recently	-2113
nder	-2114
▁QPR	-2115
▁Wil	-2116
▁mess	-2117
▁Ronaldo	-2118
joy	-2119
thing	-2120
▁hist	-2121
▁though	-2122
lish	-2123
velop	-2124
▁seem	-2125
▁clash	-2126
▁attemp	-2127
▁qualif	-2128
ari	-2129
▁When	-2130
▁ob	-2131
▁feel	-2132
▁describ	-2133
▁ey	-2134
▁Med	-2135
▁Swan	-2136
istry	-2137
▁main	-2138
▁cause	-2139
irth	-2140
▁led	-2141
yan	-2142
ATED	-2143
cher	-2144
▁UPD	-2145
▁staff	-2146
▁soc	-2147
▁Authorities	-2148
▁immediately	-2149
ged	-2150
▁PU	-2151
ovic	-2152
▁fav	-2153
▁winner	-2154
▁UPDATED	-2155
▁different	-2156
▁orig	-2157
alkeep	-2158
▁pictured	-2159
erry	-2160
▁Char	-2161
▁Daily	-2162
▁tried	-2163
ky	-2164
umb	-2165
▁29	-2166
▁jail	-2167
here	-2168
▁prof	-2169
▁resident	-2170
▁talks	-2171
▁coming	-2172
▁arrived	-2173
eg	-2174
HED	-2175
BLIS	-2176
▁bott	-2177
▁keen	-2178
▁stop	-2179
▁compl	-2180
BLISHED	-2181
▁turned	-2182
▁involved	-2183
▁PUBLISHED	-2184
▁Mus	-2185
▁super	-2186
rael	-2187
woman	-2188
▁debut	-2189
▁available	-2190
▁condition	-2191
ps	-2192
▁Tom	-2193
mates	-2194
▁Just	-2195
▁black	-2196
▁forces	-2197
▁driving	-2198
▁admitted	-2199
▁kid	-2200
▁murder	-2201
▁Stadium	-2202
▁Swansea	-2203
uct	-2204
cript	-2205
▁enjoy	-2206
▁penal	-2207
▁became	-2208
stem	-2209
ca	-2210
ti	-2211
▁age	-2212
▁bat	-2213
ernand	-2214
▁failed	-2215
▁US	-2216
band	-2217
ourn	-2218
▁bring	-2219
anger	-2220
iers	-2221
▁airport	-2222
▁friends	-2223
acy	-2224
ago	-2225
irt	-2226
▁ed	-2227
aper	-2228
agram	-2229
▁showed	-2230
▁control	-2231
▁Under	-2232
▁coast	-2233
▁deter	-2234
▁rights	-2235
▁Southampton	-2236
▁pil	-2237
secut	-2238
▁forced	-2239
▁further	-2240
▁business	-2241
ev	-2242
pm	-2243
ows	-2244
▁Williams	-2245
RE	-2246
▁cost	-2247
▁Israel	-2248
▁suspect	-2249
▁represent	-2250
arent	-2251
ething	-2252
▁organ	-2253
▁owner	-2254
orthern	-2255
▁caused	-2256
▁remains	-2257
ring	-2258
▁cour	-2259
utch	-2260
▁less	-2261
▁these	-2262
▁caught	-2263
enge	-2264
orney	-2265
▁dist	-2266
▁point	-2267
▁goalkeep	-2268
▁z	-2269
udd	-2270
▁31	-2271
miss	-2272
omin	-2273
▁store	-2274
owd	-2275
'.	-2276
mas	-2277
ager	-2278
▁Tex	-2279
▁decided	-2280
▁province	-2281
▁Cor	-2282
▁once	-2283
▁App	-2284
▁leader	-2285
▁brother	-2286
▁light	-2287
amb	-2288
udge	-2289
▁photo	-2290
▁Bro	-2291
▁ever	-2292
▁sched	-2293
emy	-2294
▁2009	-2295
ograph	-2296
▁continue	-2297
ize	-2298
▁Mur	-2299
▁vol	-2300
osing	-2301
▁Mess	-2302
▁nearly	-2303
▁Te	-2304
▁More	-2305
▁birth	-2306
▁getting	-2307
▁Pat	-2308
▁track	-2309
inc	-2310
▁Palace	-2311
▁Instagram	-2312
bed	-2313
▁moment	-2314
▁opening	-2315
▁spokeswoman	-2316
▁2008	-2317
▁might	-2318
▁Russian	-2319
aker	-2320
▁better	-2321
▁hol	-2322
▁comments	-2323
aud	-2324
▁Old	-2325
▁mag	-2326
▁Jose	-2327
gether	-2328
▁Korea	-2329
▁clubs	-2330
▁Con	-2331
▁India	-2332
▁party	-2333
▁employ	-2334
▁killing	-2335
lev	-2336
uff	-2337
order	-2338
▁moved	-2339
▁camera	-2340
ola	-2341
▁effort	-2342
▁victims	-2343
▁Argentina	-2344
▁If	-2345
outhern	-2346
int	-2347
uge	-2348
▁riv	-2349
iding	-2350
▁heart	-2351
▁quick	-2352
▁member	-2353
lec	-2354
▁cor	-2355
▁check	-2356
▁Hol	-2357
▁Texas	-2358
▁quarter	-2359
icted	-2360
▁dest	-2361
▁live	-2362
▁system	-2363
ado	-2364
▁Des	-2365
ories	-2366
aces	-2367
▁Sim	-2368
▁pot	-2369
erm	-2370
ilty	-2371
▁pri	-2372
▁Mour	-2373
▁Chris	-2374
▁White	-2375
arm	-2376
▁cas	-2377
▁Open	-2378
▁something	-2379
of	-2380
aine	-2381
burg	-2382
enced	-2383
▁Iran	-2384
▁attacks	-2385
▁students	-2386
▁FI	-2387
▁feet	-2388
▁soon	-2389
idence	-2390
istrict	-2391
▁develop	-2392
▁ra	-2393
urch	-2394
ails	-2395
enger	-2396
icide	-2397
▁design	-2398
▁special	-2399
▁Mourinho	-2400
mate	-2401
▁Belg	-2402
▁respond	-2403
▁emergency	-2404
stit	-2405
ments	-2406
▁matches	-2407
▁chief	-2408
▁takes	-2409
▁together	-2410
ests	-2411
▁eas	-2412
usband	-2413
▁order	-2414
▁guilty	-2415
▁strong	-2416
oul	-2417
▁er	-2418
▁sour	-2419
▁evening	-2420
ese	-2421
▁Que	-2422
ift	-2423
uce	-2424
▁Cap	-2425
▁terror	-2426
▁discovered	-2427
▁198	-2428
owing	-2429
vices	-2430
▁gold	-2431
▁story	-2432
▁possible	-2433
▁goalkeeper	-2434
ica	-2435
▁Bal	-2436
▁Phil	-2437
han	-2438
This	-2439
▁always	-2440
▁den	-2441
▁assist	-2442
underland	-2443
▁Qu	-2444
▁Messi	-2445
▁claims	-2446
ron	-2447
▁Tur	-2448
▁trip	-2449
▁almost	-2450
▁director	-2451
▁Christmas	-2452
▁Sunderland	-2453
▁East	-2454
▁King	-2455
ead	-2456
▁32	-2457
craft	-2458
▁grand	-2459
▁polit	-2460
▁struck	-2461
▁Nor	-2462
▁sem	-2463
▁food	-2464
ensive	-2465
ically	-2466
▁Islam	-2467
arge	-2468
0,000	-2469
▁impress	-2470
▁McC	-2471
▁jump	-2472
▁nation	-2473
lim	-2474
▁fly	-2475
▁hon	-2476
▁Miss	-2477
▁Rich	-2478
▁rock	-2479
▁import	-2480
▁pulled	-2481
▁identified	-2482
ills	-2483
▁Roy	-2484
▁assault	-2485
▁init	-2486
▁faces	-2487
▁agreed	-2488
row	-2489
▁Van	-2490
ville	-2491
▁kick	-2492
▁performan	-2493
na	-2494
yl	-2495
▁Tal	-2496
▁class	-2497
▁pilot	-2498
▁plans	-2499
5,	-2500
less	-2501
▁Def	-2502
▁bit	-2503
ushed	-2504
▁white	-2505
▁centre	-2506
ution	-2507
ki	-2508
▁Gar	-2509
▁husband	-2510
▁popular	-2511
▁problem	-2512
▁aw	-2513
▁Foot	-2514
▁insp	-2515
▁music	-2516
▁Go	-2517
anta	-2518
ilar	-2519
▁With	-2520
▁appears	-2521
▁Tor	-2522
▁Thom	-2523
▁crashed	-2524
▁Australian	-2525
ken	-2526
rie	-2527
uty	-2528
▁pain	-2529
▁African	-2530
iano	-2531
uation	-2532
uction	-2533
tainment	-2534
▁Ram	-2535
▁respons	-2536
echn	-2537
▁happy	-2538
▁social	-2539
▁America	-2540
▁Three	-2541
▁phone	-2542
▁likely	-2543
▁University	-2544
4,	-2545
ivil	-2546
▁Grand	-2547
▁What	-2548
▁surv	-2549
▁tell	-2550
▁Super	-2551
▁enough	-2552
▁believes	-2553
▁hig	-2554
▁acce	-2555
▁hoping	-2556
▁wearing	-2557
▁ri	-2558
▁hur	-2559
▁penalty	-2560
▁Hospital	-2561
▁Paris	-2562
▁Indian	-2563
▁Reporter	-2564
▁Ber	-2565
▁box	-2566
▁underst	-2567
rian	-2568
▁197	-2569
▁disapp	-2570
arents	-2571
▁space	-2572
▁reportedly	-2573
ya	-2574
play	-2575
▁Die	-2576
▁Holl	-2577
▁Week	-2578
wh	-2579
van	-2580
▁Dr	-2581
eder	-2582
iant	-2583
▁priv	-2584
▁Sports	-2585
▁question	-2586
▁challenge	-2587
ners	-2588
▁Russia	-2589
ably	-2590
▁equ	-2591
▁Cost	-2592
▁incre	-2593
▁reach	-2594
▁federal	-2595
▁Fab	-2596
▁bar	-2597
▁FIFA	-2598
▁partic	-2599
▁custody	-2600
▁Jones	-2601
ined	-2602
▁heard	-2603
▁stage	-2604
▁carrying	-2605
▁exc	-2606
though	-2607
▁reser	-2608
▁execut	-2609
▁Brown	-2610
▁online	-2611
cement	-2612
ential	-2613
▁offer	-2614
▁truck	-2615
itive	-2616
light	-2617
▁Bayern	-2618
▁issues	-2619
▁history	-2620
ades	-2621
▁Ken	-2622
▁Hull	-2623
▁wasn	-2624
▁human	-2625
▁request	-2626
▁described	-2627
rick	-2628
▁enc	-2629
▁Scot	-2630
▁impro	-2631
▁affili	-2632
▁things	-2633
▁1.	-2634
▁pitch	-2635
▁storm	-2636
▁account	-2637
▁apparent	-2638
3,	-2639
▁Ear	-2640
inals	-2641
▁brought	-2642
▁concern	-2643
▁student	-2644
▁competition	-2645
TV	-2646
▁Che	-2647
acted	-2648
▁Carol	-2649
oor	-2650
▁pun	-2651
▁unc	-2652
▁singer	-2653
▁6-	-2654
igue	-2655
ournal	-2656
▁ended	-2657
▁field	-2658
▁animal	-2659
roy	-2660
▁Mun	-2661
▁Som	-2662
▁fan	-2663
▁result	-2664
▁Dis	-2665
estern	-2666
▁begin	-2667
▁wrote	-2668
ba	-2669
lor	-2670
▁doesn	-2671
▁Center	-2672
pe	-2673
ada	-2674
uit	-2675
▁2007	-2676
▁change	-2677
▁aircraft	-2678
▁scheduled	-2679
▁celebrates	-2680
igan	-2681
▁Enter	-2682
▁doing	-2683
uz	-2684
use	-2685
▁loss	-2686
▁Diego	-2687
net	-2688
▁actor	-2689
▁Island	-2690
ryst	-2691
▁cle	-2692
▁footage	-2693
irc	-2694
par	-2695
gery	-2696
acher	-2697
▁George	-2698
▁Adam	-2699
▁fact	-2700
▁tweeted	-2701
▁treatment	-2702
▁whose	-2703
▁minute	-2704
▁Minister	-2705
olf	-2706
▁1,	-2707
▁ran	-2708
▁doct	-2709
▁stra	-2710
▁House	-2711
▁broke	-2712
▁helped	-2713
▁linked	-2714
▁present	-2715
).	-2716
eds	-2717
acked	-2718
▁Fire	-2719
▁ill	-2720
ander	-2721
▁Dutch	-2722
▁Franc	-2723
▁large	-2724
▁suspected	-2725
▁key	-2726
▁rob	-2727
▁twice	-2728
▁Wenger	-2729
▁issued	-2730
key	-2731
▁Je	-2732
read	-2733
▁fem	-2734
▁why	-2735
night	-2736
▁love	-2737
▁traff	-2738
iber	-2739
▁amb	-2740
▁Associ	-2741
▁English	-2742
▁Bol	-2743
conom	-2744
ening	-2745
▁High	-2746
ighters	-2747
▁treated	-2748
▁included	-2749
▁60	-2750
▁captured	-2751
erv	-2752
arez	-2753
elli	-2754
ires	-2755
▁card	-2756
▁song	-2757
▁Traff	-2758
▁movie	-2759
▁running	-2760
▁interested	-2761
aped	-2762
ises	-2763
▁Gen	-2764
▁step	-2765
▁Martin	-2766
▁winger	-2767
ata	-2768
ole	-2769
yle	-2770
berg	-2771
▁crowd	-2772
oice	-2773
ersey	-2774
▁larg	-2775
anding	-2776
▁Costa	-2777
▁Rober	-2778
▁Stoke	-2779
▁finish	-2780
▁nearby	-2781
▁surgery	-2782
6,	-2783
ery	-2784
mail	-2785
oint	-2786
tlet	-2787
▁try	-2788
▁Brom	-2789
▁Matt	-2790
▁pres	-2791
▁Aston	-2792
▁table	-2793
▁Leices	-2794
▁parents	-2795
▁prosecut	-2796
20	-2797
fort	-2798
▁force	-2799
▁spell	-2800
▁missed	-2801
▁Britain	-2802
▁relations	-2803
sw	-2804
▁Wat	-2805
▁Colomb	-2806
ored	-2807
room	-2808
▁2-1	-2809
▁aut	-2810
▁lim	-2811
▁Wales	-2812
▁important	-2813
ees	-2814
het	-2815
▁fit	-2816
icket	-2817
ively	-2818
▁Hart	-2819
▁Holland	-2820
▁wounded	-2821
▁affiliate	-2822
▁UK	-2823
ival	-2824
oved	-2825
▁bag	-2826
ature	-2827
ences	-2828
▁conn	-2829
tletico	-2830
▁Follow	-2831
▁addition	-2832
igg	-2833
▁35	-2834
anks	-2835
▁fig	-2836
amous	-2837
▁Fernand	-2838
▁leaders	-2839
ites	-2840
▁Mel	-2841
▁ready	-2842
▁conduc	-2843
▁damage	-2844
▁looked	-2845
▁Atletico	-2846
oz	-2847
ua	-2848
rol	-2849
ude	-2850
▁bad	-2851
ional	-2852
▁violence	-2853
ka	-2854
ria	-2855
atal	-2856
▁sen	-2857
ither	-2858
▁award	-2859
▁lives	-2860
▁resul	-2861
▁offered	-2862
▁Entertainment	-2863
ece	-2864
pper	-2865
rend	-2866
ument	-2867
ibility	-2868
▁troops	-2869
▁southern	-2870
▁previously	-2871
ube	-2872
▁Last	-2873
▁Some	-2874
▁rout	-2875
▁hotel	-2876
ulation	-2877
▁Johnson	-2878
▁include	-2879
▁launched	-2880
aint	-2881
ider	-2882
▁Tim	-2883
shire	-2884
▁Carl	-2885
▁interview	-2886
oted	-2887
▁Bor	-2888
▁sugg	-2889
▁Trans	-2890
itz	-2891
ains	-2892
▁Dem	-2893
▁civil	-2894
▁makes	-2895
▁expect	-2896
▁photos	-2897
▁position	-2898
ips	-2899
fully	-2900
ousands	-2901
▁stopped	-2902
▁personal	-2903
ota	-2904
rey	-2905
▁Per	-2906
▁mass	-2907
▁chang	-2908
ference	-2909
hood	-2910
▁burn	-2911
▁telev	-2912
▁reason	-2913
▁message	-2914
west	-2915
▁Kar	-2916
inson	-2917
▁vers	-2918
▁Scott	-2919
▁blast	-2920
▁stars	-2921
▁trial	-2922
▁finished	-2923
men	-2924
vey	-2925
▁Year	-2926
rystal	-2927
▁Trafford	-2928
...	-2929
ifth	-2930
oney	-2931
▁Ash	-2932
▁Chic	-2933
▁Office	-2934
▁worked	-2935
ode	-2936
▁Pac	-2937
▁Tour	-2938
▁fine	-2939
▁proper	-2940
▁window	-2941
▁Leicester	-2942
yn	-2943
▁tot	-2944
▁yes	-2945
▁Olympic	-2946
▁leading	-2947
▁northern	-2948
rop	-2949
▁Road	-2950
▁holid	-2951
▁surpr	-2952
▁techn	-2953
▁course	-2954
▁attorney	-2955
▁investigating	-2956
round	-2957
▁Midd	-2958
▁agent	-2959
▁reached	-2960
▁Republic	-2961
▁So	-2962
gers	-2963
▁Roma	-2964
▁cross	-2965
▁econom	-2966
▁opened	-2967
iban	-2968
▁Inc	-2969
season	-2970
▁Peter	-2971
▁charac	-2972
▁friendly	-2973
urb	-2974
▁ste	-2975
while	-2976
▁above	-2977
▁Portug	-2978
▁discuss	-2979
▁Football	-2980
On	-2981
hol	-2982
▁ty	-2983
▁Lee	-2984
▁rul	-2985
▁sure	-2986
▁weap	-2987
▁Apple	-2988
▁street	-2989
▁billion	-2990
rup	-2991
▁To	-2992
ador	-2993
empt	-2994
ficult	-2995
▁ruled	-2996
▁difficult	-2997
▁passenger	-2998
▁department	-2999
IC	-3000
wich	-3001
▁Del	-3002
▁Camp	-3003
▁Wood	-3004
▁judge	-3005
▁appeal	-3006
▁val	-3007
▁Card	-3008
▁base	-3009
ization	-3010
▁Chicago	-3011
▁process	-3012
ala	-3013
▁Not	-3014
▁div	-3015
▁huge	-3016
▁worth	-3017
anwhile	-3018
▁female	-3019
▁witness	-3020
ials	-3021
▁Atl	-3022
ology	-3023
▁Bill	-3024
▁hands	-3025
iet	-3026
elled	-3027
eymar	-3028
irates	-3029
▁original	-3030
▁countries	-3031
ventus	-3032
▁Steve	-3033
▁meeting	-3034
▁kil	-3035
▁Smith	-3036
▁Neymar	-3037
▁Weekly	-3038
▁Taliban	-3039
▁network	-3040
▁straight	-3041
overy	-3042
▁onto	-3043
▁Harry	-3044
ministr	-3045
▁spotted	-3046
ny	-3047
bum	-3048
▁done	-3049
▁publ	-3050
iminal	-3051
▁custom	-3052
run	-3053
hest	-3054
ican	-3055
ently	-3056
▁word	-3057
▁teams	-3058
▁rescue	-3059
▁Brazilian	-3060
yc	-3061
▁mis	-3062
ading	-3063
▁Airport	-3064
▁experience	-3065
ova	-3066
▁iP	-3067
▁Group	-3068
▁fifth	-3069
▁Daniel	-3070
inese	-3071
▁Zeal	-3072
▁While	-3073
▁Juventus	-3074
▁Luis	-3075
▁date	-3076
▁snow	-3077
▁border	-3078
▁safety	-3079
▁Di	-3080
iles	-3081
▁doub	-3082
ective	-3083
▁creat	-3084
▁minor	-3085
▁details	-3086
▁fun	-3087
anded	-3088
▁2015	-3089
▁clos	-3090
▁center	-3091
▁sexual	-3092
▁Ol	-3093
▁Mag	-3094
acing	-3095
▁activ	-3096
▁based	-3097
▁similar	-3098
▁NA	-3099
▁Pri	-3100
▁Spurs	-3101
▁central	-3102
▁workers	-3103
sel	-3104
▁Vir	-3105
▁sho	-3106
▁Crist	-3107
▁moving	-3108
▁percent	-3109
▁2-0	-3110
▁emb	-3111
▁Club	-3112
atives	-3113
▁Coast	-3114
▁broken	-3115
▁picked	-3116
▁certain	-3117
▁joining	-3118
▁managed	-3119
▁attacked	-3120
▁residents	-3121
▁girlfriend	-3122
▁television	-3123
▁performance	-3124
ani	-3125
eman	-3126
inez	-3127
▁196	-3128
▁Lew	-3129
▁Sal	-3130
astic	-3131
▁Murray	-3132
▁danger	-3133
▁seconds	-3134
11	-3135
ma	-3136
▁Wal	-3137
ounds	-3138
▁Arab	-3139
▁pack	-3140
angers	-3141
▁within	-3142
fit	-3143
▁Res	-3144
▁Vict	-3145
▁evac	-3146
▁prob	-3147
▁fired	-3148
down	-3149
▁Lam	-3150
▁cat	-3151
ipped	-3152
▁airl	-3153
▁disp	-3154
▁gone	-3155
▁blood	-3156
▁access	-3157
▁commit	-3158
▁fellow	-3159
▁Zealand	-3160
▁minister	-3161
icop	-3162
▁See	-3163
▁eye	-3164
▁oil	-3165
▁lear	-3166
▁bottom	-3167
▁reb	-3168
asing	-3169
undred	-3170
ication	-3171
▁followed	-3172
▁militants	-3173
rit	-3174
▁Dar	-3175
▁Jos	-3176
▁gas	-3177
▁paid	-3178
ension	-3179
▁areas	-3180
▁island	-3181
▁Jackson	-3182
▁transcript	-3183
me	-3184
dle	-3185
ela	-3186
ena	-3187
phy	-3188
▁ep	-3189
▁Egy	-3190
▁Pol	-3191
▁Simon	-3192
▁homes	-3193
▁Crystal	-3194
oren	-3195
ucky	-3196
▁album	-3197
▁alongside	-3198
cil	-3199
win	-3200
gest	-3201
▁image	-3202
▁newsp	-3203
▁shirt	-3204
▁Steven	-3205
▁Sheriff	-3206
▁completed	-3207
There	-3208
▁Burn	-3209
▁Jord	-3210
▁prop	-3211
▁motor	-3212
ination	-3213
▁market	-3214
▁neighbor	-3215
hab	-3216
▁writ	-3217
▁hor	-3218
▁attr	-3219
▁Egypt	-3220
▁senior	-3221
▁single	-3222
▁teacher	-3223
3-	-3224
ayne	-3225
pted	-3226
▁Hen	-3227
▁Roll	-3228
▁Niger	-3229
▁Somal	-3230
▁however	-3231
▁married	-3232
▁Scotland	-3233
not	-3234
▁AC	-3235
▁pet	-3236
final	-3237
▁cars	-3238
retary	-3239
ictured	-3240
▁someone	-3241
ique	-3242
▁source	-3243
adio	-3244
▁sol	-3245
▁Fore	-3246
▁Good	-3247
▁suspic	-3248
▁contact	-3249
7,	-3250
ocr	-3251
ule	-3252
▁port	-3253
▁River	-3254
▁Richard	-3255
▁perform	-3256
▁appearance	-3257
olen	-3258
oper	-3259
▁Inv	-3260
▁vill	-3261
▁crime	-3262
▁legal	-3263
▁Chinese	-3264
▁Martinez	-3265
▁Bo	-3266
iami	-3267
▁Ros	-3268
▁mem	-3269
aches	-3270
▁infl	-3271
mission	-3272
▁famous	-3273
▁opport	-3274
▁strike	-3275
▁watched	-3276
▁community	-3277
tery	-3278
▁Mos	-3279
▁ide	-3280
▁lif	-3281
▁low	-3282
▁Mass	-3283
▁mult	-3284
▁Serie	-3285
▁recall	-3286
▁mention	-3287
▁fighting	-3288
▁operation	-3289
la	-3290
va	-3291
za	-3292
▁arg	-3293
▁Liga	-3294
▁Games	-3295
▁stadium	-3296
▁suggest	-3297
▁suicide	-3298
▁problems	-3299
ero	-3300
iled	-3301
▁1-0	-3302
▁Pet	-3303
▁Maria	-3304
▁separ	-3305
unk	-3306
▁Syd	-3307
▁Charl	-3308
▁Miami	-3309
▁Robert	-3310
▁article	-3311
sey	-3312
anda	-3313
hing	-3314
orry	-3315
terday	-3316
▁Force	-3317
▁Frank	-3318
▁total	-3319
▁anyone	-3320
iron	-3321
▁stab	-3322
icated	-3323
▁chair	-3324
▁Thomas	-3325
▁display	-3326
nes	-3327
ula	-3328
▁Joe	-3329
▁Sen	-3330
▁kit	-3331
▁wrong	-3332
amilton	-3333
▁closed	-3334
▁ordered	-3335
▁quickly	-3336
ipe	-3337
▁neg	-3338
▁ris	-3339
▁Both	-3340
▁born	-3341
▁circ	-3342
▁Guard	-3343
▁People	-3344
▁School	-3345
▁continued	-3346
▁potential	-3347
.,	-3348
era	-3349
▁fir	-3350
eated	-3351
▁2016	-3352
▁rain	-3353
▁heavy	-3354
▁speed	-3355
▁Munich	-3356
▁Sl	-3357
emen	-3358
▁Web	-3359
▁foc	-3360
▁fre	-3361
▁Call	-3362
▁term	-3363
▁rivals	-3364
▁deliver	-3365
▁Hamilton	-3366
kr	-3367
rip	-3368
bour	-3369
▁Sir	-3370
ellow	-3371
▁band	-3372
jected	-3373
▁stolen	-3374
▁allowed	-3375
▁helicop	-3376
▁services	-3377
ots	-3378
▁Bag	-3379
▁Navy	-3380
▁bail	-3381
otelli	-3382
▁extra	-3383
▁created	-3384
▁determin	-3385
▁political	-3386
▁thousands	-3387
ogn	-3388
▁lab	-3389
▁boat	-3390
▁kept	-3391
▁semi	-3392
▁flood	-3393
▁yesterday	-3394
oli	-3395
▁PS	-3396
ears	-3397
mark	-3398
▁Tay	-3399
▁avo	-3400
▁Cardiff	-3401
▁Ministry	-3402
▁reserved	-3403
rel	-3404
▁Sur	-3405
▁kind	-3406
▁critic	-3407
▁Nations	-3408
▁biggest	-3409
▁includes	-3410
▁Balotelli	-3411
▁convicted	-3412
▁situation	-3413
▁fle	-3414
obile	-3415
ograp	-3416
▁Four	-3417
▁Ryan	-3418
▁refere	-3419
▁actress	-3420
▁complete	-3421
▁apparently	-3422
▁Jon	-3423
▁tax	-3424
▁YouT	-3425
▁goes	-3426
▁self	-3427
▁counts	-3428
▁passed	-3429
▁unable	-3430
▁holiday	-3431
▁regular	-3432
anch	-3433
ender	-3434
▁Gold	-3435
▁drink	-3436
▁means	-3437
▁Sydney	-3438
pictured	-3439
▁shortly	-3440
ulf	-3441
born	-3442
ding	-3443
▁Att	-3444
▁Mike	-3445
▁Step	-3446
▁Time	-3447
▁knee	-3448
action	-3449
▁trail	-3450
▁users	-3451
▁legend	-3452
▁YouTube	-3453
▁highest	-3454
▁session	-3455
2,	-3456
eda	-3457
▁Mic	-3458
▁hopes	-3459
▁share	-3460
▁Korean	-3461
▁images	-3462
▁Service	-3463
▁feature	-3464
▁holding	-3465
▁private	-3466
aves	-3467
▁Mill	-3468
▁attempt	-3469
▁starting	-3470
ha	-3471
icles	-3472
reement	-3473
essional	-3474
▁apartment	-3475
▁relationship	-3476
omp	-3477
▁Sky	-3478
oston	-3479
▁NASA	-3480
▁Feder	-3481
▁attend	-3482
▁favour	-3483
In	-3484
▁Cle	-3485
oming	-3486
▁answ	-3487
▁fund	-3488
▁Rodgers	-3489
▁soldiers	-3490
▁attention	-3491
sex	-3492
ennis	-3493
month	-3494
▁shut	-3495
▁Virgin	-3496
▁filmed	-3497
▁Belgium	-3498
▁weather	-3499
▁newspaper	-3500
▁45	-3501
▁HE	-3502
uing	-3503
▁Ire	-3504
▁ice	-3505
▁phys	-3506
▁couldn	-3507
▁Cristiano	-3508
▁Gal	-3509
▁bod	-3510
▁Kent	-3511
▁sell	-3512
lected	-3513
▁below	-3514
▁Muslim	-3515
▁instead	-3516
▁landing	-3517
▁sentenced	-3518
ez	-3519
fl	-3520
ares	-3521
▁...	-3522
▁Law	-3523
▁Wel	-3524
board	-3525
▁Penn	-3526
▁Play	-3527
▁meas	-3528
▁Street	-3529
▁pictures	-3530
▁(1	-3531
▁Lo	-3532
erby	-3533
riage	-3534
▁Press	-3535
▁estim	-3536
▁shown	-3537
▁Taylor	-3538
▁perman	-3539
▁traffic	-3540
▁attempted	-3541
▁suffering	-3542
▁Mer	-3543
going	-3544
▁wild	-3545
▁Ireland	-3546
▁criminal	-3547
gia	-3548
▁Den	-3549
▁Net	-3550
▁Gunn	-3551
▁Lion	-3552
▁bird	-3553
▁seek	-3554
coming	-3555
ighter	-3556
▁thing	-3557
▁Security	-3558
▁featured	-3559
▁Association	-3560
:4	-3561
▁24-	-3562
▁Haw	-3563
▁abs	-3564
▁gra	-3565
▁door	-3566
▁east	-3567
▁Boston	-3568
▁Rooney	-3569
▁Francis	-3570
BI	-3571
anny	-3572
▁Det	-3573
▁cal	-3574
rison	-3575
▁HERE	-3576
▁cast	-3577
▁drive	-3578
▁hearing	-3579
▁Ke	-3580
▁buy	-3581
known	-3582
▁bill	-3583
undreds	-3584
▁Arsene	-3585
▁Carolina	-3586
▁character	-3587
▁explosion	-3588
▁impressive	-3589
▁2.	-3590
▁CL	-3591
▁EW	-3592
▁di	-3593
iest	-3594
mund	-3595
▁Fox	-3596
▁vir	-3597
▁stre	-3598
▁Wayne	-3599
ify	-3600
▁Sil	-3601
anted	-3602
▁wait	-3603
▁block	-3604
▁cerem	-3605
▁polic	-3606
▁served	-3607
BA	-3608
▁38	-3609
come	-3610
▁fast	-3611
▁Click	-3612
▁shock	-3613
▁launch	-3614
▁district	-3615
▁celebrate	-3616
4-	-3617
ICK	-3618
ugh	-3619
hens	-3620
▁doz	-3621
▁Green	-3622
▁Jordan	-3623
▁Rangers	-3624
▁transport	-3625
rees	-3626
▁25-	-3627
▁Andy	-3628
▁gets	-3629
▁west	-3630
▁drugs	-3631
▁earth	-3632
▁firef	-3633
▁Suarez	-3634
▁nothing	-3635
▁version	-3636
abul	-3637
▁tal	-3638
▁Cont	-3639
▁Hall	-3640
▁male	-3641
▁CLICK	-3642
▁girls	-3643
:1	-3644
▁2006	-3645
▁bank	-3646
aining	-3647
▁Lewis	-3648
▁kilome	-3649
▁foreign	-3650
▁Meanwhile	-3651
9,	-3652
ease	-3653
▁har	-3654
ction	-3655
ishing	-3656
selves	-3657
▁needed	-3658
▁Despite	-3659
▁beating	-3660
▁carried	-3661
▁located	-3662
▁provide	-3663
ci	-3664
iod	-3665
▁90	-3666
vert	-3667
▁Don	-3668
▁arm	-3669
illeg	-3670
▁Royal	-3671
▁enter	-3672
▁floor	-3673
▁often	-3674
▁battle	-3675
▁depart	-3676
▁engine	-3677
▁landed	-3678
▁themselves	-3679
▁Ty	-3680
▁wed	-3681
encia	-3682
omest	-3683
▁Airl	-3684
▁Part	-3685
▁Sant	-3686
▁families	-3687
asc	-3688
tar	-3689
▁21-	-3690
▁Big	-3691
▁FBI	-3692
based	-3693
▁decl	-3694
▁arriv	-3695
▁broad	-3696
▁delay	-3697
▁issue	-3698
uk	-3699
▁Ba	-3700
▁Mot	-3701
▁Osc	-3702
▁ens	-3703
inary	-3704
▁Rock	-3705
▁sentence	-3706
▁suspended	-3707
ministration	-3708
▁Brad	-3709
▁mean	-3710
▁roll	-3711
▁safe	-3712
▁sale	-3713
bourne	-3714
▁cases	-3715
▁touch	-3716
▁Mexican	-3717
▁substit	-3718
▁towards	-3719
long	-3720
▁Rodr	-3721
▁calls	-3722
▁guard	-3723
▁cancer	-3724
▁deaths	-3725
▁dropped	-3726
▁recover	-3727
▁everyone	-3728
▁kilometers	-3729
▁photograph	-3730
▁supporters	-3731
igr	-3732
▁My	-3733
aeda	-3734
▁500	-3735
▁Lib	-3736
ality	-3737
uated	-3738
▁Tony	-3739
▁magaz	-3740
▁removed	-3741
▁continues	-3742
:30	-3743
▁Ko	-3744
▁du	-3745
▁Ten	-3746
▁sal	-3747
▁Gary	-3748
▁cash	-3749
▁speak	-3750
▁Prince	-3751
▁Colombia	-3752
▁determined	-3753
▁Up	-3754
▁Cro	-3755
▁Met	-3756
▁fee	-3757
▁cand	-3758
▁wins	-3759
Online	-3760
ointed	-3761
▁comed	-3762
▁double	-3763
▁extrem	-3764
▁period	-3765
▁Anfield	-3766
▁contest	-3767
▁pleaded	-3768
▁published	-3769
add	-3770
▁ET	-3771
lege	-3772
▁Ukr	-3773
▁bur	-3774
atter	-3775
cohol	-3776
▁comb	-3777
▁trou	-3778
▁dress	-3779
▁older	-3780
▁apolog	-3781
▁denied	-3782
▁warning	-3783
▁agreement	-3784
▁Rec	-3785
athan	-3786
onstr	-3787
▁Dort	-3788
▁Sand	-3789
▁cred	-3790
▁glob	-3791
▁beach	-3792
▁Victor	-3793
▁Dortmund	-3794
▁evidence	-3795
▁vehicles	-3796
▁conference	-3797
▁rev	-3798
▁sat	-3799
arian	-3800
▁trad	-3801
ounced	-3802
weight	-3803
▁Prime	-3804
▁model	-3805
▁Bridge	-3806
▁Roberto	-3807
1,	-3808
▁Abd	-3809
oking	-3810
▁note	-3811
▁plays	-3812
▁events	-3813
▁showing	-3814
ker	-3815
▁Oh	-3816
▁Ok	-3817
▁Alan	-3818
▁wall	-3819
▁Mario	-3820
bre	-3821
opa	-3822
▁agg	-3823
▁sil	-3824
ademy	-3825
▁Holly	-3826
▁mount	-3827
▁Lionel	-3828
▁handed	-3829
▁Atlanta	-3830
▁eventually	-3831
▁successful	-3832
rav	-3833
▁22-	-3834
▁Now	-3835
▁aim	-3836
▁non	-3837
knapp	-3838
▁Cole	-3839
▁Cong	-3840
▁Marc	-3841
▁rare	-3842
▁Qaeda	-3843
▁restaur	-3844
▁Investig	-3845
▁Redknapp	-3846
▁executive	-3847
▁Sn	-3848
fect	-3849
oned	-3850
▁Ver	-3851
▁wel	-3852
▁caps	-3853
▁tree	-3854
▁illeg	-3855
▁domest	-3856
▁giving	-3857
▁shared	-3858
▁although	-3859
▁MailOnline	-3860
ging	-3861
▁27-	-3862
▁cre	-3863
▁ham	-3864
iguez	-3865
▁Celt	-3866
▁batt	-3867
ancial	-3868
▁clean	-3869
▁living	-3870
▁journal	-3871
▁largest	-3872
▁results	-3873
▁anything	-3874
▁impressed	-3875
hi	-3876
esl	-3877
iju	-3878
▁3.	-3879
reng	-3880
▁Mac	-3881
▁Nick	-3882
▁mist	-3883
▁send	-3884
▁Great	-3885
▁Mount	-3886
▁placed	-3887
forcement	-3888
▁professional	-3889
ATO	-3890
rog	-3891
aked	-3892
cean	-3893
itiz	-3894
igned	-3895
▁Bull	-3896
▁Andre	-3897
▁armed	-3898
▁peace	-3899
▁bodies	-3900
▁losing	-3901
▁recogn	-3902
▁considered	-3903
',	-3904
hua	-3905
half	-3906
well	-3907
▁Shaw	-3908
▁anti	-3909
▁aver	-3910
▁pract	-3911
▁planned	-3912
▁affected	-3913
▁reporters	-3914
yer	-3915
team	-3916
▁Boy	-3917
▁tie	-3918
ector	-3919
▁felt	-3920
▁youth	-3921
▁Democr	-3922
▁sports	-3923
▁collaps	-3924
▁efforts	-3925
▁36	-3926
▁Ari	-3927
▁BBC	-3928
▁Jam	-3929
ilipp	-3930
▁Army	-3931
▁NATO	-3932
▁deep	-3933
▁mission	-3934
▁Airlines	-3935
:5	-3936
dd	-3937
set	-3938
▁Ev	-3939
mers	-3940
▁Gre	-3941
iants	-3942
▁Town	-3943
▁sust	-3944
▁oppos	-3945
▁parts	-3946
▁pressure	-3947
▁Rodriguez	-3948
▁recovered	-3949
▁everything	-3950
▁pi	-3951
▁18-	-3952
▁19-	-3953
▁Bow	-3954
▁bul	-3955
▁ren	-3956
tions	-3957
▁fest	-3958
▁Brook	-3959
▁facing	-3960
▁matter	-3961
▁Burnley	-3962
▁general	-3963
▁refused	-3964
▁returning	-3965
▁youngster	-3966
▁48	-3967
▁Ur	-3968
▁Cas	-3969
▁pen	-3970
heast	-3971
▁exam	-3972
ijuana	-3973
▁seems	-3974
▁middle	-3975
▁property	-3976
▁Christian	-3977
▁struggled	-3978
uay	-3979
ardy	-3980
▁20-	-3981
illed	-3982
itude	-3983
▁Comm	-3984
▁Beach	-3985
▁Young	-3986
▁Jersey	-3987
▁Gunners	-3988
▁Valencia	-3989
▁challeng	-3990
▁permanent	-3991
BS	-3992
tr	-3993
▁4.	-3994
ours	-3995
tino	-3996
▁Jer	-3997
▁bas	-3998
▁sle	-3999
▁Juan	-4000
▁avoid	-4001
▁sides	-4002
▁keeper	-4003
▁referee	-4004
▁ceremony	-4005
▁teenager	-4006
▁conditions	-4007
isc	-4008
val	-4009
▁Dub	-4010
▁Hot	-4011
▁Mid	-4012
▁beg	-4013
▁ten	-4014
▁Bund	-4015
centre	-4016
▁Brend	-4017
▁Other	-4018
▁beaut	-4019
▁banned	-4020
▁promot	-4021
ographer	-4022
▁consider	-4023
bon	-4024
vis	-4025
▁Mas	-4026
▁Str	-4027
▁bom	-4028
▁unl	-4029
▁Maur	-4030
apping	-4031
▁Union	-4032
▁groups	-4033
▁suspects	-4034
▁Hollywood	-4035
ON	-4036
aze	-4037
bra	-4038
They	-4039
ivid	-4040
▁Win	-4041
▁ver	-4042
▁Yemen	-4043
▁abuse	-4044
▁favor	-4045
▁Queens	-4046
▁streng	-4047
▁arrival	-4048
▁village	-4049
▁walking	-4050
▁helicopter	-4051
de	-4052
esp	-4053
ils	-4054
chie	-4055
evin	-4056
ustr	-4057
▁NBC	-4058
ashes	-4059
▁Pers	-4060
▁ring	-4061
finals	-4062
▁Moham	-4063
▁climb	-4064
▁gener	-4065
▁flying	-4066
▁delight	-4067
▁Emirates	-4068
▁magazine	-4069
▁ministry	-4070
▁Pakistani	-4071
▁70	-4072
iced	-4073
▁23-	-4074
▁Ful	-4075
▁Nap	-4076
▁obs	-4077
▁bond	-4078
▁corn	-4079
▁pred	-4080
▁spend	-4081
▁longer	-4082
▁confirm	-4083
▁birthday	-4084
▁Officials	-4085
arre	-4086
cept	-4087
▁aud	-4088
▁bed	-4089
viron	-4090
▁surf	-4091
▁Kevin	-4092
▁either	-4093
▁rather	-4094
▁Another	-4095
▁seasons	-4096
cia	-4097
kins	-4098
uter	-4099
▁Jim	-4100
▁rap	-4101
▁Euro	-4102
▁Mary	-4103
▁Shar	-4104
▁Chief	-4105
▁collect	-4106
ges	-4107
ira	-4108
▁75	-4109
ural	-4110
▁Fal	-4111
▁isn	-4112
aints	-4113
▁norm	-4114
▁rank	-4115
▁spir	-4116
▁Oscar	-4117
▁whole	-4118
▁domestic	-4119
▁responded	-4120
ami	-4121
▁Haz	-4122
▁Hum	-4123
pting	-4124
▁Jeff	-4125
▁citiz	-4126
▁spark	-4127
▁assaul	-4128
▁beaten	-4129
▁pounds	-4130
▁Justice	-4131
cow	-4132
▁Os	-4133
rier	-4134
ties	-4135
▁Fin	-4136
▁Pel	-4137
ights	-4138
isher	-4139
▁aged	-4140
▁hurt	-4141
▁push	-4142
▁seat	-4143
rovers	-4144
▁price	-4145
▁Middle	-4146
▁earthqu	-4147
▁receive	-4148
▁subject	-4149
vironment	-4150
▁Japanese	-4151
▁connection	-4152
▁particular	-4153
▁championship	-4154
ait	-4155
▁80	-4156
▁Kh	-4157
▁ank	-4158
▁sea	-4159
lined	-4160
▁Sing	-4161
▁runs	-4162
▁seal	-4163
▁seed	-4164
esliga	-4165
▁Henry	-4166
▁author	-4167
▁Philipp	-4168
▁Virginia	-4169
ban	-4170
bers	-4171
▁26-	-4172
▁annual	-4173
▁common	-4174
▁Israeli	-4175
▁prevent	-4176
▁critical	-4177
▁Bundesliga	-4178
lyn	-4179
mad	-4180
ugby	-4181
aging	-4182
▁Ford	-4183
▁Ross	-4184
▁Star	-4185
▁tack	-4186
▁trav	-4187
▁thank	-4188
▁Celtic	-4189
▁Brendan	-4190
▁alcohol	-4191
▁eastern	-4192
▁project	-4193
▁features	-4194
▁progress	-4195
aska	-4196
oles	-4197
▁Kim	-4198
akers	-4199
ochet	-4200
▁epis	-4201
▁filed	-4202
▁damaged	-4203
ko	-4204
ilt	-4205
ipp	-4206
▁II	-4207
▁Art	-4208
▁und	-4209
▁urg	-4210
▁blue	-4211
▁mind	-4212
▁stun	-4213
▁needs	-4214
▁headed	-4215
▁states	-4216
▁written	-4217
▁watching	-4218
▁marijuana	-4219
▁opportunity	-4220
EFA	-4221
ume	-4222
▁300	-4223
▁Rio	-4224
▁risk	-4225
▁volc	-4226
▁Danny	-4227
▁Watch	-4228
▁range	-4229
weather	-4230
▁Agency	-4231
▁Georgia	-4232
▁escaped	-4233
!'	-4234
aco	-4235
pro	-4236
iser	-4237
onse	-4238
▁Hel	-4239
▁pan	-4240
emper	-4241
▁Ohio	-4242
▁ride	-4243
▁Syria	-4244
ications	-4245
▁causing	-4246
▁respect	-4247
▁chairman	-4248
▁marriage	-4249
▁possession	-4250
idel	-4251
iple	-4252
▁Act	-4253
itzer	-4254
onder	-4255
▁poor	-4256
▁terms	-4257
▁Health	-4258
▁commun	-4259
▁screen	-4260
▁facility	-4261
7-	-4262
wide	-4263
▁Las	-4264
▁Mont	-4265
▁save	-4266
▁Camer	-4267
▁Queen	-4268
▁estab	-4269
▁replace	-4270
▁unclear	-4271
▁District	-4272
▁probably	-4273
▁surround	-4274
ih	-4275
tee	-4276
▁7-	-4277
ocal	-4278
▁Gra	-4279
▁fel	-4280
thony	-4281
▁burg	-4282
▁item	-4283
uments	-4284
▁robber	-4285
▁fitness	-4286
▁weapons	-4287
▁controvers	-4288
nor	-4289
oms	-4290
▁Bale	-4291
▁Coun	-4292
▁Ferg	-4293
▁Hill	-4294
▁UEFA	-4295
▁dogs	-4296
▁Somalia	-4297
▁improve	-4298
▁massive	-4299
▁surprise	-4300
bit	-4301
erc	-4302
▁Ah	-4303
assy	-4304
▁Bur	-4305
▁vote	-4306
▁Dubai	-4307
▁Wigan	-4308
▁giant	-4309
▁nomin	-4310
▁sales	-4311
▁spect	-4312
▁candid	-4313
▁rushed	-4314
▁Portugal	-4315
hd	-4316
ns	-4317
oti	-4318
▁ic	-4319
body	-4320
icks	-4321
liam	-4322
▁Soc	-4323
▁boys	-4324
▁Moscow	-4325
▁Torres	-4326
▁Anthony	-4327
▁Medical	-4328
▁rescued	-4329
ads	-4330
life	-4331
mine	-4332
week	-4333
▁Bir	-4334
▁Luk	-4335
▁spl	-4336
azing	-4337
▁swit	-4338
▁achie	-4339
▁focus	-4340
▁cannot	-4341
▁entire	-4342
▁review	-4343
▁Indones	-4344
▁defense	-4345
▁destroy	-4346
▁related	-4347
▁recovery	-4348
deg	-4349
hib	-4350
▁3-0	-4351
▁Mem	-4352
▁USA	-4353
▁vac	-4354
ighton	-4355
▁Clark	-4356
▁ankle	-4357
▁influ	-4358
liament	-4359
▁Pochet	-4360
▁Fernando	-4361
▁Pochettino	-4362
▁responsibility	-4363
▁Luc	-4364
▁PSG	-4365
▁tow	-4366
▁Down	-4367
▁appl	-4368
▁aboard	-4369
▁outfit	-4370
▁warned	-4371
▁entered	-4372
▁individ	-4373
▁stories	-4374
▁Melbourne	-4375
har	-4376
▁5.	-4377
foot	-4378
rard	-4379
▁Bob	-4380
▁uns	-4381
▁zoo	-4382
allas	-4383
vania	-4384
▁About	-4385
▁doctor	-4386
▁indust	-4387
▁spread	-4388
▁talent	-4389
▁animals	-4390
▁partner	-4391
▁Mayweather	-4392
▁restaurant	-4393
2-	-4394
:0	-4395
gn	-4396
oe	-4397
eum	-4398
tic	-4399
itor	-4400
▁Saf	-4401
▁Spe	-4402
▁cho	-4403
iring	-4404
▁Ball	-4405
▁Prix	-4406
▁Saud	-4407
▁Serb	-4408
astern	-4409
ickets	-4410
ylvania	-4411
▁Fulham	-4412
▁Nigeria	-4413
▁helping	-4414
▁confident	-4415
jo	-4416
nel	-4417
ple	-4418
▁7.	-4419
oked	-4420
resh	-4421
▁Lit	-4422
▁Mat	-4423
▁Sun	-4424
owned	-4425
▁bene	-4426
▁veter	-4427
▁mobile	-4428
▁temper	-4429
▁Lambert	-4430
▁wedding	-4431
▁presidential	-4432
ibly	-4433
▁Alb	-4434
▁rac	-4435
apped	-4436
▁bear	-4437
▁hero	-4438
▁catch	-4439
▁glass	-4440
▁Gerrard	-4441
500	-4442
ipl	-4443
ceed	-4444
ogle	-4445
▁Ali	-4446
▁Fel	-4447
▁temp	-4448
▁scores	-4449
▁rejected	-4450
▁neighborhood	-4451
▁organization	-4452
:3	-4453
aga	-4454
agn	-4455
iao	-4456
ardo	-4457
▁Lab	-4458
▁esp	-4459
epend	-4460
house	-4461
▁hits	-4462
ashion	-4463
▁paper	-4464
▁prior	-4465
▁serve	-4466
▁stret	-4467
▁withd	-4468
▁targeted	-4469
▁initially	-4470
▁questions	-4471
▁Tw	-4472
term	-4473
▁dev	-4474
▁via	-4475
▁Luke	-4476
▁Swed	-4477
▁cart	-4478
▁Spani	-4479
▁effect	-4480
▁Defense	-4481
▁disease	-4482
zo	-4483
ran	-4484
▁Ow	-4485
appy	-4486
rief	-4487
▁Rog	-4488
▁Veg	-4489
▁rape	-4490
▁shel	-4491
▁slam	-4492
▁Times	-4493
ecially	-4494
▁yellow	-4495
▁dangerous	-4496
dom	-4497
hew	-4498
cing	-4499
▁Sar	-4500
uties	-4501
▁Conn	-4502
▁cell	-4503
▁flag	-4504
▁idea	-4505
amford	-4506
atural	-4507
▁Anton	-4508
▁Blues	-4509
▁Penns	-4510
▁Saudi	-4511
▁Council	-4512
▁General	-4513
▁airline	-4514
▁viewers	-4515
▁response	-4516
▁assistant	-4517
▁Sportsmail	-4518
▁Pennsylvania	-4519
!"	-4520
ni	-4521
avi	-4522
ros	-4523
ella	-4524
▁Raf	-4525
▁Barb	-4526
▁Eric	-4527
▁doll	-4528
▁hair	-4529
▁First	-4530
▁quite	-4531
▁tough	-4532
▁experi	-4533
▁operations	-4534
▁6.	-4535
▁FC	-4536
oner	-4537
▁ath	-4538
ussia	-4539
▁erup	-4540
uclear	-4541
▁Andrew	-4542
▁Google	-4543
▁adding	-4544
▁giants	-4545
▁average	-4546
If	-4547
ao	-4548
She	-4549
apt	-4550
din	-4551
ias	-4552
▁Id	-4553
quar	-4554
▁Hug	-4555
▁ben	-4556
▁lic	-4557
iling	-4558
imate	-4559
▁Hond	-4560
▁sens	-4561
loaded	-4562
▁words	-4563
acement	-4564
▁financial	-4565
▁sustained	-4566
▁2,	-4567
airs	-4568
uson	-4569
zona	-4570
▁Long	-4571
▁instr	-4572
▁Ashley	-4573
▁Canada	-4574
▁Fabreg	-4575
▁Turkey	-4576
▁owners	-4577
▁Belgian	-4578
▁finally	-4579
▁flights	-4580
▁records	-4581
3.	-4582
45	-4583
bor	-4584
▁Vi	-4585
ancy	-4586
fire	-4587
uise	-4588
▁Bus	-4589
▁Dev	-4590
▁Clin	-4591
▁hous	-4592
▁Vegas	-4593
▁Fabregas	-4594
▁actually	-4595
▁attended	-4596
▁employees	-4597
aly	-4598
ixt	-4599
ols	-4600
ores	-4601
▁Hou	-4602
▁Use	-4603
▁ele	-4604
▁hat	-4605
ching	-4606
duced	-4607
▁cris	-4608
▁dark	-4609
▁gall	-4610
▁lose	-4611
▁vess	-4612
▁oppon	-4613
▁rival	-4614
▁tests	-4615
▁Monaco	-4616
▁Arizona	-4617
▁reading	-4618
▁waiting	-4619
▁demonstr	-4620
▁employee	-4621
▁particip	-4622
▁attacking	-4623
▁firefighters	-4624
LS	-4625
hone	-4626
look	-4627
antic	-4628
ieber	-4629
▁Bern	-4630
▁Most	-4631
▁suit	-4632
▁admit	-4633
▁green	-4634
▁thanks	-4635
▁charity	-4636
▁enjoyed	-4637
overnment	-4638
▁positive	-4639
▁collapsed	-4640
▁customers	-4641
▁performed	-4642
▁throughout	-4643
FL	-4644
▁Du	-4645
enez	-4646
rant	-4647
▁3-1	-4648
▁30-	-4649
▁Six	-4650
lands	-4651
▁Mand	-4652
▁lack	-4653
▁swim	-4654
embley	-4655
▁1,000	-4656
▁Child	-4657
▁Chile	-4658
▁gives	-4659
▁likes	-4660
▁medal	-4661
▁sixth	-4662
ificant	-4663
▁incred	-4664
▁raised	-4665
▁heading	-4666
▁streets	-4667
▁hundreds	-4668
▁personnel	-4669
▁allegations	-4670
▁responsible	-4671
sec	-4672
▁Ell	-4673
▁Mir	-4674
▁imm	-4675
▁Gulf	-4676
▁eyes	-4677
▁fled	-4678
▁purch	-4679
▁works	-4680
▁Garcia	-4681
▁constr	-4682
▁lawyer	-4683
▁negoti	-4684
▁sister	-4685
▁counter	-4686
▁doctors	-4687
▁Ferguson	-4688
▁Americans	-4689
▁especially	-4690
rap	-4691
sun	-4692
mond	-4693
▁29-	-4694
▁Ter	-4695
▁busy	-4696
▁fuel	-4697
▁pret	-4698
▁pron	-4699
▁plant	-4700
▁steal	-4701
▁Common	-4702
▁escape	-4703
▁figure	-4704
▁impact	-4705
▁origin	-4706
▁worker	-4707
▁Wembley	-4708
▁beginning	-4709
▁evacuated	-4710
▁tradition	-4711
him	-4712
urt	-4713
▁Ac	-4714
▁Az	-4715
resp	-4716
▁Resc	-4717
▁neck	-4718
▁Woods	-4719
▁mater	-4720
▁Hazard	-4721
▁earned	-4722
▁global	-4723
▁covered	-4724
▁falling	-4725
▁feeling	-4726
▁illegal	-4727
▁nuclear	-4728
▁Stamford	-4729
▁standing	-4730
▁remaining	-4731
▁understood	-4732
9.	-4733
My	-4734
Wh	-4735
yo	-4736
gio	-4737
ste	-4738
chez	-4739
hdad	-4740
reek	-4741
▁NBA	-4742
▁deg	-4743
▁duo	-4744
▁Lamp	-4745
▁prem	-4746
▁purs	-4747
▁meant	-4748
▁Watson	-4749
▁associ	-4750
▁highly	-4751
▁Internet	-4752
▁multiple	-4753
▁immediate	-4754
▁photographer	-4755
oph	-4756
▁Nad	-4757
▁jet	-4758
atory	-4759
isted	-4760
uguay	-4761
▁2002	-4762
▁firm	-4763
▁laws	-4764
▁wide	-4765
icking	-4766
▁spoke	-4767
▁Uruguay	-4768
▁Spaniard	-4769
▁visitors	-4770
▁replacement	-4771
eme	-4772
star	-4773
▁McD	-4774
areth	-4775
maker	-4776
▁Cast	-4777
▁Neil	-4778
▁Sher	-4779
▁Vill	-4780
▁films	-4781
▁Bieber	-4782
ological	-4783
▁Central	-4784
▁Federal	-4785
▁economic	-4786
▁provided	-4787
▁estimated	-4788
:2	-4789
thy	-4790
▁Bu	-4791
adel	-4792
owed	-4793
▁195	-4794
▁Pre	-4795
▁Reg	-4796
▁Walk	-4797
▁else	-4798
▁mach	-4799
iction	-4800
▁Croat	-4801
▁Robin	-4802
▁boost	-4803
▁pregn	-4804
▁Barack	-4805
▁deadly	-4806
▁calling	-4807
▁ongoing	-4808
▁declared	-4809
▁seriously	-4810
▁enforcement	-4811
met	-4812
ateg	-4813
ouch	-4814
▁Dou	-4815
▁Pan	-4816
▁sun	-4817
asket	-4818
▁Leon	-4819
▁exch	-4820
▁knew	-4821
▁Liber	-4822
▁brief	-4823
▁burgl	-4824
▁signs	-4825
▁asking	-4826
▁titles	-4827
▁Islamic	-4828
amin	-4829
enty	-4830
omen	-4831
shot	-4832
▁CEO	-4833
▁Dal	-4834
▁2005	-4835
▁cold	-4836
ulance	-4837
▁Derby	-4838
▁moves	-4839
▁seeing	-4840
▁Earlier	-4841
▁perfect	-4842
▁putting	-4843
▁sending	-4844
▁Commission	-4845
REE	-4846
▁Ms	-4847
quir	-4848
town	-4849
▁Show	-4850
▁cult	-4851
▁kids	-4852
▁tall	-4853
▁whom	-4854
Americ	-4855
minute	-4856
▁Bruce	-4857
▁Color	-4858
▁Since	-4859
▁knows	-4860
olution	-4861
▁Carlos	-4862
▁Gareth	-4863
▁Baghdad	-4864
▁Sanchez	-4865
▁address	-4866
▁serving	-4867
▁pronounced	-4868
40	-4869
rif	-4870
ura	-4871
▁Jul	-4872
▁Pot	-4873
▁Team	-4874
▁amid	-4875
▁arms	-4876
▁legs	-4877
dinand	-4878
▁holds	-4879
▁releg	-4880
▁sound	-4881
▁tells	-4882
▁Bolton	-4883
▁During	-4884
▁Michel	-4885
▁device	-4886
▁inches	-4887
▁ruling	-4888
▁underw	-4889
▁sheriff	-4890
▁Anderson	-4891
▁approach	-4892
▁detained	-4893
▁Ferdinand	-4894
▁investigators	-4895
You	-4896
lad	-4897
omm	-4898
rin	-4899
iana	-4900
ients	-4901
iplom	-4902
▁Fort	-4903
▁Lane	-4904
▁Pard	-4905
▁army	-4906
▁Wilson	-4907
▁corner	-4908
▁happen	-4909
▁option	-4910
▁walked	-4911
▁Switzer	-4912
▁winners	-4913
▁spending	-4914
▁Transcript	-4915
▁qualifying	-4916
▁Switzerland	-4917
▁Eb	-4918
file	-4919
▁Hod	-4920
▁coc	-4921
ansas	-4922
▁Rick	-4923
▁Stur	-4924
▁hole	-4925
▁fatal	-4926
▁stuck	-4927
▁winds	-4928
▁Pardew	-4929
▁secure	-4930
▁Houston	-4931
▁Pacific	-4932
▁emerged	-4933
▁retired	-4934
▁sitting	-4935
▁western	-4936
▁environment	-4937
oa	-4938
den	-4939
▁Hay	-4940
▁Try	-4941
▁pra	-4942
annel	-4943
using	-4944
▁Hong	-4945
▁clin	-4946
▁Iraqi	-4947
▁Leeds	-4948
▁bench	-4949
▁hosts	-4950
▁knock	-4951
▁smoke	-4952
ilities	-4953
▁offers	-4954
▁trophy	-4955
▁protect	-4956
▁Officers	-4957
▁document	-4958
▁election	-4959
▁shoulder	-4960
▁determine	-4961
4.	-4962
IA	-4963
LL	-4964
lah	-4965
▁Far	-4966
▁grab	-4967
▁grow	-4968
▁pray	-4969
▁sets	-4970
arious	-4971
sunami	-4972
▁exact	-4973
mingham	-4974
standing	-4975
▁dismiss	-4976
▁herself	-4977
▁initial	-4978
▁protest	-4979
▁separate	-4980
▁standards	-4981
▁earthquake	-4982
▁threatened	-4983
▁significant	-4984
▁announcement	-4985
1.	-4986
bel	-4987
iro	-4988
aron	-4989
more	-4990
reme	-4991
▁CBS	-4992
▁Zoo	-4993
▁typ	-4994
▁Buck	-4995
▁FREE	-4996
▁warm	-4997
▁Davis	-4998
▁dream	-4999
▁joint	-5000
▁Persie	-5001
▁agents	-5002
▁booked	-5003
▁crisis	-5004
▁comfort	-5005
▁Brighton	-5006
▁products	-5007
▁survived	-5008
▁Birmingham	-5009
ja	-5010
jan	-5011
outs	-5012
▁ABC	-5013
▁cop	-5014
▁Jenn	-5015
▁Pass	-5016
▁Wimb	-5017
▁2012.	-5018
▁Justin	-5019
▁compan	-5020
▁insists	-5021
▁trouble	-5022
▁unknown	-5023
▁visited	-5024
▁volcano	-5025
▁Borussia	-5026
▁Argentine	-5027
▁struggling	-5028
▁39	-5029
iful	-5030
pson	-5031
rect	-5032
ship	-5033
▁Cub	-5034
▁ang	-5035
▁hun	-5036
ledon	-5037
▁drop	-5038
esters	-5039
person	-5040
▁Canad	-5041
▁names	-5042
▁advert	-5043
▁conduct	-5044
▁moments	-5045
▁options	-5046
▁declined	-5047
▁recorded	-5048
▁Francisco	-5049
NA	-5050
Re	-5051
▁Dj	-5052
ello	-5053
▁28-	-5054
▁Lis	-5055
▁unve	-5056
ancing	-5057
degree	-5058
▁lived	-5059
▁places	-5060
▁reasons	-5061
▁maintain	-5062
▁suspicion	-5063
▁additional	-5064
▁considering	-5065
no	-5066
sl	-5067
bur	-5068
rena	-5069
▁Cour	-5070
▁Turk	-5071
rehens	-5072
▁Swiss	-5073
▁doubt	-5074
▁quake	-5075
▁shots	-5076
▁Europa	-5077
▁starts	-5078
▁Colorado	-5079
▁concerns	-5080
▁Wimbledon	-5081
▁Administration	-5082
ux	-5083
yal	-5084
▁10-	-5085
▁Cra	-5086
▁Ple	-5087
▁Ray	-5088
▁Sus	-5089
▁Top	-5090
▁aid	-5091
▁Camb	-5092
▁data	-5093
anging	-5094
ground	-5095
▁theft	-5096
▁iPhone	-5097
▁retire	-5098
▁Federer	-5099
▁clearly	-5100
▁keeping	-5101
▁breaking	-5102
▁planning	-5103
▁receiving	-5104
▁parliament	-5105
uf	-5106
gen	-5107
turn	-5108
▁Sud	-5109
▁din	-5110
▁vot	-5111
ellig	-5112
state	-5113
▁Bang	-5114
▁Cook	-5115
▁Lind	-5116
▁Many	-5117
▁tank	-5118
▁unus	-5119
ewhere	-5120
▁Terry	-5121
▁occas	-5122
▁sleep	-5123
ecutive	-5124
▁Disney	-5125
▁choice	-5126
▁frustr	-5127
▁winter	-5128
▁cocaine	-5129
▁committed	-5130
▁substitute	-5131
But	-5132
▁Cy	-5133
etts	-5134
rawn	-5135
▁911	-5136
▁Gaz	-5137
▁NFL	-5138
▁cab	-5139
abeth	-5140
amily	-5141
hered	-5142
▁Bent	-5143
▁Cons	-5144
▁Prov	-5145
▁Sorry	-5146
▁built	-5147
▁Forest	-5148
▁belong	-5149
▁diplom	-5150
▁silver	-5151
▁ticket	-5152
▁contain	-5153
▁Olympics	-5154
▁designed	-5155
▁upcoming	-5156
▁opposition	-5157
arr	-5158
iny	-5159
icio	-5160
opez	-5161
▁Kir	-5162
arden	-5163
ental	-5164
venth	-5165
▁Eliz	-5166
▁Five	-5167
▁exit	-5168
▁heav	-5169
▁kidn	-5170
▁wish	-5171
nessee	-5172
ribute	-5173
▁defin	-5174
▁honor	-5175
▁Sergio	-5176
▁encoun	-5177
▁stands	-5178
▁figures	-5179
▁schools	-5180
▁destroyed	-5181
▁highlight	-5182
▁population	-5183
gu	-5184
abe	-5185
eed	-5186
ius	-5187
▁Ox	-5188
▁Ra	-5189
bing	-5190
ideo	-5191
▁Bry	-5192
▁bal	-5193
apper	-5194
▁Comp	-5195
▁Form	-5196
▁duty	-5197
▁prec	-5198
igious	-5199
▁items	-5200
▁Alaska	-5201
▁Dallas	-5202
▁amount	-5203
▁citing	-5204
▁deputy	-5205
▁leaves	-5206
▁letter	-5207
▁regard	-5208
▁toward	-5209
▁waters	-5210
▁Sturridge	-5211
AS	-5212
ISK	-5213
▁Kn	-5214
▁Kr	-5215
burn	-5216
lets	-5217
ycle	-5218
attle	-5219
ledge	-5220
ports	-5221
▁Bush	-5222
▁Greg	-5223
▁Ibra	-5224
▁RISK	-5225
▁educ	-5226
▁emot	-5227
▁size	-5228
▁Jason	-5229
▁Santa	-5230
▁Manuel	-5231
▁proved	-5232
▁seized	-5233
▁Clinton	-5234
▁posting	-5235
▁reality	-5236
▁seeking	-5237
▁Mauricio	-5238
▁Northern	-5239
▁citizens	-5240
▁majority	-5241
▁traveling	-5242
▁celebrating	-5243
ME	-5244
uer	-5245
▁Lt	-5246
hold	-5247
sequ	-5248
▁12-	-5249
▁Fil	-5250
▁Nas	-5251
▁Who	-5252
▁jud	-5253
▁row	-5254
▁vice	-5255
fortun	-5256
▁blaze	-5257
▁daily	-5258
▁prime	-5259
▁cancel	-5260
▁create	-5261
▁switch	-5262
▁vessel	-5263
▁Charles	-5264
▁complet	-5265
▁increase	-5266
▁remained	-5267
▁Secretary	-5268
▁Tennessee	-5269
▁55	-5270
erve	-5271
unis	-5272
▁15-	-5273
▁Gab	-5274
anged	-5275
▁icon	-5276
▁upon	-5277
▁faced	-5278
agement	-5279
▁artist	-5280
▁prices	-5281
▁limited	-5282
▁product	-5283
▁Although	-5284
▁powerful	-5285
▁register	-5286
uma	-5287
upp	-5288
▁8.	-5289
eter	-5290
imum	-5291
uted	-5292
▁10.	-5293
▁Qat	-5294
▁cup	-5295
▁Here	-5296
▁Robb	-5297
▁user	-5298
▁Sudan	-5299
▁Venez	-5300
▁freed	-5301
▁proud	-5302
▁route	-5303
▁Napoli	-5304
▁begins	-5305
▁cities	-5306
▁comedy	-5307
▁highway	-5308
▁talking	-5309
▁Attorney	-5310
▁Canadian	-5311
▁Michigan	-5312
▁Robinson	-5313
▁computer	-5314
▁offering	-5315
▁speaking	-5316
▁boyfriend	-5317
▁involving	-5318
1-	-5319
EA	-5320
akh	-5321
▁3-	-5322
▁65	-5323
▁IS	-5324
▁Jr	-5325
dale	-5326
mann	-5327
otti	-5328
▁pur	-5329
▁rum	-5330
▁Ferr	-5331
▁hear	-5332
▁nort	-5333
▁shop	-5334
▁Arena	-5335
▁Stone	-5336
▁haven	-5337
▁10,000	-5338
▁Koeman	-5339
▁Malays	-5340
▁explod	-5341
iversary	-5342
▁Capital	-5343
▁Ukraine	-5344
▁natural	-5345
▁Venezuel	-5346
▁claiming	-5347
▁protests	-5348
▁witnesses	-5349
ora	-5350
merc	-5351
reck	-5352
▁20,	-5353
▁Esp	-5354
▁Kel	-5355
eless	-5356
▁Lake	-5357
▁Stand	-5358
▁rules	-5359
▁auction	-5360
▁episode	-5361
▁knocked	-5362
▁prepared	-5363
▁replaced	-5364
▁certainly	-5365
▁defensive	-5366
gs	-5367
aks	-5368
izz	-5369
▁33	-5370
▁Iv	-5371
▁bi	-5372
onso	-5373
phia	-5374
▁17-	-5375
achus	-5376
idden	-5377
rique	-5378
▁Reds	-5379
▁boot	-5380
▁jury	-5381
▁poll	-5382
▁Jamie	-5383
▁views	-5384
▁church	-5385
adelphia	-5386
▁Ibrahim	-5387
▁trailer	-5388
achusetts	-5389
▁favorite	-5390
▁Elizabeth	-5391
▁qualifier	-5392
▁representative	-5393
0.	-5394
oct	-5395
▁Kl	-5396
▁Bet	-5397
▁Ill	-5398
▁Nov	-5399
▁Xin	-5400
▁upd	-5401
orial	-5402
usted	-5403
▁Post	-5404
▁clip	-5405
▁coal	-5406
▁hasn	-5407
illing	-5408
▁Barcl	-5409
▁sidel	-5410
imately	-5411
▁acting	-5412
▁survey	-5413
▁trained	-5414
▁tourists	-5415
▁accepting	-5416
▁terrorist	-5417
▁Philadelphia	-5418
▁particularly	-5419
▁Massachusetts	-5420
7.	-5421
As	-5422
▁34	-5423
itan	-5424
▁Ath	-5425
▁Out	-5426
ullah	-5427
villa	-5428
▁Beck	-5429
▁Bowl	-5430
▁Kong	-5431
▁Prot	-5432
▁pers	-5433
▁true	-5434
▁wood	-5435
▁Their	-5436
▁alone	-5437
▁exerc	-5438
▁intro	-5439
▁bought	-5440
▁consum	-5441
▁amazing	-5442
▁drivers	-5443
▁Scottish	-5444
▁bringing	-5445
▁Blackpool	-5446
▁ambulance	-5447
▁documents	-5448
8.	-5449
atto	-5450
▁Agu	-5451
▁Cav	-5452
▁Fro	-5453
▁Rey	-5454
ijing	-5455
ppers	-5456
▁Coll	-5457
▁unit	-5458
ricane	-5459
▁Barca	-5460
▁Lopez	-5461
▁crews	-5462
▁dance	-5463
▁laugh	-5464
▁study	-5465
itation	-5466
▁accept	-5467
▁decide	-5468
▁Antonio	-5469
▁Beijing	-5470
▁Carroll	-5471
▁Hernand	-5472
▁bombing	-5473
▁growing	-5474
▁illness	-5475
▁numbers	-5476
▁younger	-5477
▁approached	-5478
8,	-5479
ef	-5480
And	-5481
rom	-5482
▁LA	-5483
bury	-5484
ully	-5485
▁21,	-5486
▁Bas	-5487
▁God	-5488
alled	-5489
izing	-5490
▁Khan	-5491
▁mill	-5492
ission	-5493
isting	-5494
▁Pacqu	-5495
▁subst	-5496
▁ensure	-5497
▁hamstr	-5498
▁pretty	-5499
▁tennis	-5500
▁wonder	-5501
▁seventh	-5502
▁sources	-5503
▁trapped	-5504
▁becoming	-5505
▁deadline	-5506
▁prompted	-5507
▁mentioned	-5508
▁33-	-5509
▁Cal	-5510
▁Sea	-5511
▁Sol	-5512
▁ski	-5513
▁Sean	-5514
▁plat	-5515
▁reun	-5516
▁Earth	-5517
▁Space	-5518
▁agree	-5519
▁confl	-5520
▁weigh	-5521
▁jumped	-5522
▁Hammers	-5523
▁Journal	-5524
▁changed	-5525
▁secured	-5526
stitution	-5527
▁Barclays	-5528
▁Jonathan	-5529
▁Pacquiao	-5530
▁mountain	-5531
▁civilians	-5532
▁delighted	-5533
▁secretary	-5534
cy	-5535
cao	-5536
▁49	-5537
fall	-5538
okyo	-5539
unny	-5540
▁6-2	-5541
▁Jes	-5542
▁Rad	-5543
inian	-5544
▁golf	-5545
▁Craig	-5546
▁Local	-5547
▁Ocean	-5548
▁lower	-5549
▁worst	-5550
▁deploy	-5551
▁felony	-5552
▁higher	-5553
▁remove	-5554
▁100,000	-5555
▁Sevilla	-5556
▁plastic	-5557
▁robbery	-5558
▁unusual	-5559
▁various	-5560
▁Morrison	-5561
▁governor	-5562
▁broadcast	-5563
▁technology	-5564
ati	-5565
ases	-5566
orer	-5567
stan	-5568
▁Are	-5569
▁Vin	-5570
▁fat	-5571
▁pit	-5572
point	-5573
▁blow	-5574
▁path	-5575
ipment	-5576
othing	-5577
▁Saint	-5578
▁crack	-5579
▁equal	-5580
▁fallen	-5581
▁normal	-5582
▁struct	-5583
ervation	-5584
▁Turkish	-5585
asketball	-5586
▁physical	-5587
▁contacted	-5588
▁knowledge	-5589
▁comprehens	-5590
▁university	-5591
▁anniversary	-5592
▁journalists	-5593
St	-5594
TA	-5595
isl	-5596
uan	-5597
▁Ly	-5598
aret	-5599
irec	-5600
▁Bos	-5601
▁nar	-5602
▁san	-5603
bound	-5604
chers	-5605
essed	-5606
iance	-5607
▁Hend	-5608
▁easy	-5609
▁fant	-5610
▁feed	-5611
▁fixt	-5612
▁stor	-5613
▁Ebola	-5614
▁aware	-5615
▁piece	-5616
▁bridge	-5617
▁wouldn	-5618
▁Officer	-5619
▁Russell	-5620
▁decades	-5621
▁independ	-5622
▁shopping	-5623
▁uploaded	-5624
identified	-5625
▁concerned	-5626
▁incredible	-5627
▁understand	-5628
ga	-5629
▁,	-5630
boy	-5631
ios	-5632
kin	-5633
ply	-5634
duce	-5635
▁dad	-5636
▁mix	-5637
elson	-5638
udden	-5639
▁Gall	-5640
ardyce	-5641
upreme	-5642
▁2,000	-5643
▁Leban	-5644
▁Video	-5645
▁books	-5646
▁elder	-5647
▁weight	-5648
▁Patrick	-5649
▁capture	-5650
▁defence	-5651
▁soldier	-5652
▁division	-5653
▁location	-5654
▁partners	-5655
▁incidents	-5656
▁Investigators	-5657
oni	-5658
oyd	-5659
sen	-5660
uts	-5661
▁Aj	-5662
▁Ut	-5663
agic	-5664
ifer	-5665
▁400	-5666
▁Max	-5667
▁rub	-5668
agers	-5669
arily	-5670
▁2012,	-5671
▁Irish	-5672
▁Nadal	-5673
▁Tokyo	-5674
▁prize	-5675
▁restr	-5676
▁casual	-5677
▁select	-5678
▁severe	-5679
▁closing	-5680
▁dressed	-5681
▁fashion	-5682
▁tickets	-5683
▁produced	-5684
▁Allardyce	-5685
▁collision	-5686
▁departure	-5687
▁encounter	-5688
▁equipment	-5689
▁hamstring	-5690
▁preparing	-5691
▁prosecutors	-5692
imal	-5693
▁Kat	-5694
▁Poy	-5695
▁Pul	-5696
▁Sum	-5697
▁bac	-5698
▁ble	-5699
▁From	-5700
▁fair	-5701
▁prim	-5702
ailand	-5703
▁Loren	-5704
▁fresh	-5705
▁fully	-5706
▁Alonso	-5707
▁Falcao	-5708
▁Xinhua	-5709
▁insurg	-5710
▁stable	-5711
▁Lampard	-5712
▁Norwich	-5713
▁chances	-5714
▁commerc	-5715
▁fighter	-5716
▁finding	-5717
▁selling	-5718
▁Brooklyn	-5719
▁required	-5720
▁buildings	-5721
▁conducted	-5722
6-	-5723
▁Ta	-5724
That	-5725
anes	-5726
ords	-5727
riot	-5728
▁Tou	-5729
▁bow	-5730
aution	-5731
▁Brian	-5732
▁wheel	-5733
related	-5734
▁Morgan	-5735
▁invest	-5736
▁videos	-5737
▁Stephen	-5738
elligence	-5739
▁Thailand	-5740
▁attempts	-5741
▁hospitalized	-5742
eb	-5743
eta	-5744
had	-5745
iev	-5746
ila	-5747
▁Mu	-5748
▁Us	-5749
clus	-5750
uese	-5751
▁Cab	-5752
▁Get	-5753
▁MLS	-5754
▁Squ	-5755
andal	-5756
▁Ivan	-5757
▁cruc	-5758
▁lock	-5759
▁rise	-5760
▁Poyet	-5761
▁Welsh	-5762
▁radio	-5763
▁style	-5764
▁Carter	-5765
▁Kenned	-5766
▁Saints	-5767
▁remark	-5768
▁settle	-5769
▁weapon	-5770
▁Formula	-5771
▁changes	-5772
▁hitting	-5773
▁obvious	-5774
▁Interior	-5775
▁controll	-5776
▁enjoying	-5777
▁Portuguese	-5778
▁celebrated	-5779
▁development	-5780
afe	-5781
car	-5782
argo	-5783
▁guy	-5784
itals	-5785
ulate	-5786
▁Bell	-5787
▁Pear	-5788
▁Wall	-5789
▁bike	-5790
▁chem	-5791
▁gang	-5792
▁tied	-5793
atures	-5794
▁2010,	-5795
▁prove	-5796
▁Flight	-5797
▁sacked	-5798
▁Kennedy	-5799
▁violent	-5800
▁Prosecut	-5801
▁practice	-5802
▁elections	-5803
▁expressed	-5804
▁attempting	-5805
▁protesters	-5806
sy	-5807
▁AT	-5808
▁Do	-5809
▁Im	-5810
▁Li	-5811
▁Of	-5812
apse	-5813
▁1.5	-5814
▁Gib	-5815
ecess	-5816
eland	-5817
icate	-5818
named	-5819
osure	-5820
owell	-5821
▁Bank	-5822
▁Djok	-5823
▁Even	-5824
▁Fair	-5825
▁Lanc	-5826
▁Ster	-5827
▁dram	-5828
▁rule	-5829
▁sees	-5830
▁wing	-5831
iamond	-5832
▁drone	-5833
▁Miller	-5834
▁safely	-5835
▁Enrique	-5836
▁express	-5837
▁Djokovic	-5838
▁exploded	-5839
▁industry	-5840
▁research	-5841
▁searching	-5842
▁commission	-5843
▁completely	-5844
▁officially	-5845
bo	-5846
zes	-5847
bris	-5848
inth	-5849
rini	-5850
▁1-1	-5851
▁22,	-5852
▁25,	-5853
▁gar	-5854
▁sym	-5855
arant	-5856
eline	-5857
orrow	-5858
▁pose	-5859
▁raid	-5860
acting	-5861
▁Marsh	-5862
▁Moore	-5863
▁alive	-5864
▁cloud	-5865
▁diver	-5866
▁somet	-5867
▁policy	-5868
▁skills	-5869
▁tackle	-5870
▁Charlie	-5871
▁failure	-5872
▁tsunami	-5873
▁messages	-5874
▁Indonesia	-5875
▁complaint	-5876
▁performing	-5877
▁experienced	-5878
▁controversial	-5879
amo	-5880
asg	-5881
bro	-5882
eph	-5883
▁Fi	-5884
bell	-5885
▁Rom	-5886
▁flu	-5887
agles	-5888
asgow	-5889
itely	-5890
▁Fall	-5891
▁ways	-5892
nesota	-5893
▁Oklah	-5894
▁drove	-5895
legrini	-5896
▁Senate	-5897
▁histor	-5898
▁opener	-5899
▁pushed	-5900
▁riding	-5901
▁scient	-5902
▁tempor	-5903
▁Matthew	-5904
▁compete	-5905
▁teenage	-5906
▁Minnesota	-5907
▁beautiful	-5908
ta	-5909
aha	-5910
aug	-5911
ima	-5912
war	-5913
orge	-5914
▁Laz	-5915
▁Ped	-5916
▁rat	-5917
▁sky	-5918
ikely	-5919
ously	-5920
▁Hodg	-5921
▁Read	-5922
▁Well	-5923
▁zone	-5924
▁heads	-5925
▁lines	-5926
▁poses	-5927
▁river	-5928
▁Athlet	-5929
▁aggrav	-5930
▁secret	-5931
▁seemed	-5932
American	-5933
▁academy	-5934
▁overall	-5935
▁parking	-5936
▁Oklahoma	-5937
▁Speaking	-5938
?"	-5939
ym	-5940
zen	-5941
▁9.	-5942
When	-5943
anna	-5944
beat	-5945
chen	-5946
haps	-5947
▁hal	-5948
▁wid	-5949
break	-5950
▁meth	-5951
isters	-5952
▁fract	-5953
▁mouth	-5954
▁refer	-5955
▁threw	-5956
▁Palest	-5957
▁Please	-5958
▁Poland	-5959
▁Rafael	-5960
▁Safety	-5961
▁answer	-5962
▁arrive	-5963
▁dozens	-5964
▁encour	-5965
▁thrown	-5966
▁Glasgow	-5967
▁Hodgson	-5968
▁Iranian	-5969
▁Roberts	-5970
▁economy	-5971
▁picking	-5972
▁Sporting	-5973
▁favourite	-5974
▁investigate	-5975
15	-5976
sm	-5977
adi	-5978
low	-5979
▁vs	-5980
anka	-5981
berl	-5982
hill	-5983
onto	-5984
▁Box	-5985
▁Gun	-5986
▁Lat	-5987
▁McG	-5988
▁fix	-5989
inois	-5990
▁Rome	-5991
▁bath	-5992
▁aband	-5993
▁brain	-5994
▁brand	-5995
▁direc	-5996
▁raise	-5997
▁smart	-5998
ectives	-5999
▁breath	-6000
▁itself	-6001
▁native	-6002
▁resign	-6003
▁tracks	-6004
▁noticed	-6005
▁prepare	-6006
▁quality	-6007
▁Sterling	-6008
▁defeated	-6009
▁Pellegrini	-6010
▁originally	-6011
▁recovering	-6012
▁suspicious	-6013
cu	-6014
aya	-6015
chi	-6016
inn	-6017
▁27,	-6018
▁Daw	-6019
▁Leg	-6020
▁McI	-6021
▁Mod	-6022
▁gay	-6023
▁lay	-6024
cious	-6025
ingly	-6026
jects	-6027
ounts	-6028
oured	-6029
rence	-6030
weets	-6031
▁Dani	-6032
▁Jane	-6033
▁Stan	-6034
▁Wars	-6035
▁Wolf	-6036
▁nose	-6037
▁rate	-6038
ashing	-6039
▁Party	-6040
▁split	-6041
▁spray	-6042
celotti	-6043
▁Rescue	-6044
▁bottle	-6045
▁battery	-6046
▁cameras	-6047
▁complex	-6048
▁usually	-6049
▁Congress	-6050
▁compared	-6051
▁explosives	-6052
▁production	-6053
▁construction	-6054
li	-6055
rd	-6056
aku	-6057
▁Cu	-6058
▁Cz	-6059
ends	-6060
hatt	-6061
inch	-6062
▁Shi	-6063
▁fal	-6064
▁ven	-6065
ishes	-6066
▁Mack	-6067
▁Over	-6068
▁jack	-6069
▁Libya	-6070
▁Roger	-6071
▁Roman	-6072
▁guest	-6073
▁monit	-6074
▁tight	-6075
▁viral	-6076
ruption	-6077
▁Awards	-6078
▁Joseph	-6079
▁crimes	-6080
▁patrol	-6081
▁proced	-6082
▁Croatia	-6083
▁arrests	-6084
▁college	-6085
▁learned	-6086
▁shocked	-6087
▁dramatic	-6088
▁millions	-6089
▁Ancelotti	-6090
▁unidentified	-6091
esh	-6092
mir	-6093
eneg	-6094
host	-6095
ront	-6096
yond	-6097
▁Kol	-6098
▁Lev	-6099
aries	-6100
ockey	-6101
opher	-6102
▁adop	-6103
▁trib	-6104
antage	-6105
formed	-6106
orable	-6107
▁2013,	-6108
▁Catal	-6109
▁Qatar	-6110
▁domin	-6111
▁smugg	-6112
▁Little	-6113
▁beyond	-6114
▁credit	-6115
▁movies	-6116
ointment	-6117
quarters	-6118
▁Egyptian	-6119
▁Jennifer	-6120
▁reaction	-6121
▁Hernandez	-6122
▁operating	-6123
▁basketball	-6124
▁increasing	-6125
GA	-6126
ergy	-6127
hour	-6128
lies	-6129
onym	-6130
▁24,	-6131
▁30,	-6132
▁Hun	-6133
agedy	-6134
agues	-6135
overs	-6136
uters	-6137
veral	-6138
▁Land	-6139
▁torn	-6140
▁Kabul	-6141
▁Lille	-6142
▁Toure	-6143
▁appre	-6144
▁exhib	-6145
▁mayor	-6146
▁posed	-6147
▁races	-6148
▁tatto	-6149
▁virus	-6150
▁active	-6151
▁stages	-6152
▁Station	-6153
▁excited	-6154
▁setting	-6155
▁Children	-6156
▁relegation	-6157
▁spokesperson	-6158
ikh	-6159
acts	-6160
alke	-6161
atan	-6162
omes	-6163
▁32-	-6164
ufact	-6165
▁beer	-6166
▁flew	-6167
▁Porto	-6168
▁tries	-6169
▁urged	-6170
ography	-6171
▁debris	-6172
▁discip	-6173
▁meters	-6174
▁punish	-6175
▁rocket	-6176
▁stepped	-6177
▁threats	-6178
▁tribute	-6179
▁Illinois	-6180
▁measures	-6181
▁appointed	-6182
▁aggravated	-6183
▁continuing	-6184
▁Championships	-6185
CA	-6186
OR	-6187
▁(2	-6188
▁Av	-6189
▁Ma	-6190
▁Sg	-6191
abad	-6192
agan	-6193
away	-6194
eing	-6195
unch	-6196
▁Let	-6197
▁der	-6198
▁voc	-6199
erous	-6200
phone	-6201
▁Test	-6202
▁Wild	-6203
▁fear	-6204
▁toll	-6205
vement	-6206
▁Asian	-6207
▁costs	-6208
▁owned	-6209
▁trade	-6210
▁value	-6211
ability	-6212
▁awards	-6213
▁scream	-6214
▁sudden	-6215
▁Toronto	-6216
▁actions	-6217
▁exactly	-6218
▁machine	-6219
▁sparked	-6220
▁Victoria	-6221
▁conflict	-6222
▁repeated	-6223
▁questioned	-6224
▁competitions	-6225
LE	-6226
To	-6227
gl	-6228
Our	-6229
iot	-6230
utt	-6231
▁Rh	-6232
imin	-6233
load	-6234
▁19,	-6235
▁Jav	-6236
▁Put	-6237
▁Tro	-6238
▁mph	-6239
ighth	-6240
▁acts	-6241
▁pool	-6242
▁sand	-6243
▁2011,	-6244
▁Alger	-6245
▁Carlo	-6246
▁Hawai	-6247
▁Silva	-6248
▁rugby	-6249
▁sight	-6250
▁stunt	-6251
▁turns	-6252
▁voice	-6253
▁closer	-6254
▁county	-6255
▁weekly	-6256
▁Manager	-6257
▁Middles	-6258
▁Watford	-6259
▁ability	-6260
▁experts	-6261
▁warrant	-6262
▁militant	-6263
▁companies	-6264
▁expensive	-6265
▁Democratic	-6266
▁management	-6267
▁performances	-6268
▁37	-6269
aser	-6270
unte	-6271
▁Abu	-6272
▁Any	-6273
▁Eti	-6274
▁Gir	-6275
▁Sgt	-6276
▁sad	-6277
▁Asia	-6278
▁Doct	-6279
▁Jess	-6280
ermain	-6281
hattan	-6282
ociety	-6283
ourney	-6284
ulated	-6285
▁Czech	-6286
▁abduc	-6287
▁dozen	-6288
▁horse	-6289
▁knife	-6290
▁stole	-6291
▁wreck	-6292
winning	-6293
▁Marine	-6294
▁franch	-6295
▁speech	-6296
▁failing	-6297
▁mistake	-6298
▁organiz	-6299
▁routine	-6300
▁section	-6301
▁allowing	-6302
▁Manhattan	-6303
▁worldwide	-6304
▁prosecutor	-6305
▁3,	-6306
▁cy	-6307
acki	-6308
▁31-	-6309
▁pig	-6310
▁rid	-6311
▁Jail	-6312
▁edge	-6313
▁fort	-6314
▁scen	-6315
▁sear	-6316
▁2013.	-6317
▁Cross	-6318
▁Ligue	-6319
▁These	-6320
▁frequ	-6321
▁relax	-6322
vention	-6323
▁Albion	-6324
▁Columb	-6325
▁Davies	-6326
▁Direct	-6327
▁Greece	-6328
▁athlet	-6329
▁Ferrari	-6330
▁Hamburg	-6331
▁Supreme	-6332
▁nations	-6333
▁testing	-6334
▁veteran	-6335
▁unlikely	-6336
▁influence	-6337
▁individual	-6338
▁representatives	-6339
6.	-6340
IN	-6341
IP	-6342
Or	-6343
asy	-6344
die	-6345
▁Ry	-6346
iang	-6347
onny	-6348
oria	-6349
real	-6350
▁23,	-6351
▁4-0	-6352
▁Sak	-6353
▁Tre	-6354
▁die	-6355
▁unf	-6356
▁Ajax	-6357
▁McIl	-6358
▁Remy	-6359
▁cool	-6360
▁leng	-6361
▁plea	-6362
▁wore	-6363
▁2008,	-6364
▁Found	-6365
▁drama	-6366
▁lucky	-6367
▁spons	-6368
▁thigh	-6369
▁Golden	-6370
▁exclus	-6371
▁levels	-6372
▁museum	-6373
▁unique	-6374
itnesses	-6375
ulations	-6376
▁Foreign	-6377
▁targets	-6378
▁Government	-6379
0,	-6380
zz	-6381
lers	-6382
ults	-6383
▁Hur	-6384
▁dig	-6385
▁eat	-6386
▁que	-6387
▁tor	-6388
venue	-6389
▁heat	-6390
▁magn	-6391
▁mask	-6392
▁slow	-6393
encies	-6394
second	-6395
▁Aaron	-6396
▁Lions	-6397
▁bombs	-6398
▁examp	-6399
▁fears	-6400
▁feels	-6401
▁prosp	-6402
▁voted	-6403
▁Austin	-6404
▁Family	-6405
▁eighth	-6406
▁listed	-6407
▁Schalke	-6408
▁Western	-6409
▁require	-6410
▁Province	-6411
▁festival	-6412
▁identify	-6413
▁manufact	-6414
▁visiting	-6415
▁Blackburn	-6416
▁Frenchman	-6417
▁advantage	-6418
▁commercial	-6419
▁travelling	-6420
▁accidentally	-6421
ien	-6422
itt	-6423
obs	-6424
angu	-6425
▁Moy	-6426
▁Stu	-6427
▁iRe	-6428
▁Glob	-6429
▁Lord	-6430
▁drew	-6431
▁grad	-6432
▁harm	-6433
▁masc	-6434
▁2011.	-6435
▁Crown	-6436
▁Emerg	-6437
▁Judge	-6438
▁Power	-6439
▁chest	-6440
▁stick	-6441
abulary	-6442
lecting	-6443
▁Orland	-6444
▁Santos	-6445
▁suburb	-6446
▁Lorenzo	-6447
▁concert	-6448
▁starred	-6449
▁tourist	-6450
▁Southern	-6451
▁coverage	-6452
▁coalition	-6453
▁discovery	-6454
▁dismissed	-6455
▁Christopher	-6456
▁celebration	-6457
99	-6458
?'	-6459
eno	-6460
iqu	-6461
olk	-6462
por	-6463
wan	-6464
▁08	-6465
tois	-6466
▁Nob	-6467
▁Nou	-6468
▁ign	-6469
▁mer	-6470
▁tom	-6471
▁ult	-6472
ordon	-6473
▁Rose	-6474
▁farm	-6475
▁fish	-6476
veland	-6477
wealth	-6478
▁Kelly	-6479
ointing	-6480
▁engaged	-6481
▁returns	-6482
▁telling	-6483
▁announce	-6484
▁internet	-6485
▁material	-6486
▁pregnant	-6487
▁presence	-6488
▁distribut	-6489
▁fantastic	-6490
hy	-6491
ASH	-6492
uly	-6493
▁Hy	-6494
ader	-6495
irts	-6496
part	-6497
▁29,	-6498
▁6-4	-6499
▁800	-6500
▁Ecu	-6501
▁Fre	-6502
▁Hor	-6503
▁Jac	-6504
▁Sab	-6505
aming	-6506
▁bags	-6507
▁clot	-6508
▁wave	-6509
▁Pulis	-6510
▁Tunis	-6511
▁Church	-6512
▁Hughes	-6513
▁circum	-6514
▁desper	-6515
▁ending	-6516
▁flames	-6517
▁myself	-6518
▁rounds	-6519
▁selfie	-6520
ospitals	-6521
▁Reading	-6522
▁willing	-6523
▁flooding	-6524
▁patients	-6525
▁intelligence	-6526
FC	-6527
bl	-6528
▁hy	-6529
okes	-6530
ouri	-6531
umph	-6532
▁Sha	-6533
▁Wol	-6534
▁inn	-6535
erved	-6536
istic	-6537
shere	-6538
▁Dons	-6539
▁Nico	-6540
▁roof	-6541
▁toil	-6542
ffield	-6543
ushing	-6544
▁Among	-6545
▁Every	-6546
▁joins	-6547
▁rough	-6548
▁saved	-6549
illiant	-6550
▁Author	-6551
▁compat	-6552
▁recomm	-6553
entially	-6554
▁healthy	-6555
▁heavily	-6556
▁inmates	-6557
▁produce	-6558
▁stabbed	-6559
▁Wilshere	-6560
▁exchange	-6561
▁Alexander	-6562
▁increased	-6563
▁promotion	-6564
▁Commonwealth	-6565
▁headquarters	-6566
2.	-6567
mo	-6568
gun	-6569
ita	-6570
olut	-6571
ozni	-6572
quiz	-6573
▁3-2	-6574
▁eth	-6575
▁lie	-6576
▁max	-6577
▁pal	-6578
anced	-6579
antly	-6580
match	-6581
oping	-6582
orent	-6583
▁acqu	-6584
▁puts	-6585
▁sout	-6586
▁tiny	-6587
rapped	-6588
▁Wozni	-6589
▁adult	-6590
▁alert	-6591
▁false	-6592
▁trees	-6593
▁Centre	-6594
▁Hawaii	-6595
▁Nelson	-6596
▁Norway	-6597
▁Syrian	-6598
▁houses	-6599
▁racing	-6600
▁simply	-6601
▁Ecuador	-6602
▁elderly	-6603
▁gallery	-6604
▁parties	-6605
▁subsequ	-6606
▁Newsquiz	-6607
▁coaching	-6608
▁sexually	-6609
▁struggle	-6610
▁Cleveland	-6611
▁Emergency	-6612
▁extremely	-6613
▁definitely	-6614
At	-6615
ER	-6616
No	-6617
uy	-6618
eor	-6619
imp	-6620
acks	-6621
uate	-6622
▁150	-6623
▁Bac	-6624
▁Bad	-6625
▁Mah	-6626
▁Nav	-6627
▁Pep	-6628
▁flo	-6629
above	-6630
erted	-6631
sburg	-6632
▁Mars	-6633
▁Verm	-6634
▁musc	-6635
▁sick	-6636
▁type	-6637
astian	-6638
placed	-6639
▁Marco	-6640
▁Thank	-6641
▁diagn	-6642
▁semif	-6643
▁shape	-6644
▁condem	-6645
▁energy	-6646
▁obtain	-6647
liminary	-6648
▁Vincent	-6649
▁awarded	-6650
▁iReport	-6651
▁singing	-6652
▁accepted	-6653
▁activity	-6654
▁electric	-6655
▁producer	-6656
▁education	-6657
▁finishing	-6658
▁presented	-6659
▁competitive	-6660
▁possibility	-6661
▁investigated	-6662
!!	-6663
wa	-6664
oko	-6665
▁4-	-6666
cont	-6667
▁6-3	-6668
▁Fey	-6669
▁Key	-6670
▁Sag	-6671
▁cro	-6672
▁tur	-6673
aters	-6674
regon	-6675
▁Alab	-6676
▁Back	-6677
▁Insp	-6678
▁Ward	-6679
▁gift	-6680
▁kiss	-6681
▁sail	-6682
▁text	-6683
▁uses	-6684
▁wake	-6685
acking	-6686
earing	-6687
▁Broad	-6688
▁Kenya	-6689
▁cards	-6690
▁colle	-6691
▁Lukaku	-6692
▁Stuart	-6693
▁Wright	-6694
▁fought	-6695
▁jailed	-6696
▁nature	-6697
▁string	-6698
▁wounds	-6699
heastern	-6700
▁passing	-6701
▁Courtois	-6702
▁platform	-6703
▁thinking	-6704
▁Sheffield	-6705
▁expecting	-6706
▁explosive	-6707
▁featuring	-6708
▁speculation	-6709
▁temperatures	-6710
AN	-6711
CR	-6712
do	-6713
aka	-6714
▁Ts	-6715
abwe	-6716
agon	-6717
aken	-6718
ocol	-6719
odes	-6720
rett	-6721
▁16-	-6722
▁18,	-6723
▁Alv	-6724
▁Cur	-6725
▁Gro	-6726
▁Lau	-6727
▁Men	-6728
arthy	-6729
▁2003	-6730
▁Fans	-6731
▁quit	-6732
▁rail	-6733
▁sort	-6734
▁Jesus	-6735
▁Moyes	-6736
▁divor	-6737
▁panel	-6738
▁yards	-6739
imbabwe	-6740
▁Berlin	-6741
▁Oregon	-6742
▁prepar	-6743
▁Cameron	-6744
▁Islands	-6745
▁follows	-6746
▁turning	-6747
▁welcome	-6748
▁arriving	-6749
▁fighters	-6750
▁Yorkshire	-6751
▁overnight	-6752
▁suspension	-6753
ato	-6754
ids	-6755
ked	-6756
rec	-6757
cott	-6758
erle	-6759
like	-6760
uses	-6761
▁26,	-6762
▁Bat	-6763
▁Ian	-6764
sters	-6765
▁Jama	-6766
▁Kane	-6767
▁Sime	-6768
▁guns	-6769
▁5,000	-6770
▁categ	-6771
▁fined	-6772
▁steps	-6773
▁Public	-6774
▁accomp	-6775
▁bomber	-6776
▁gunmen	-6777
▁intent	-6778
▁lifted	-6779
▁poised	-6780
▁prefer	-6781
▁resort	-6782
orentina	-6783
▁Highway	-6784
▁Mandela	-6785
▁Masters	-6786
▁absence	-6787
▁meaning	-6788
▁strikes	-6789
▁brothers	-6790
▁collapse	-6791
▁drinking	-6792
▁committee	-6793
▁extension	-6794
▁sometimes	-6795
▁suggested	-6796
▁Fiorentina	-6797
▁challenges	-6798
▁consecutive	-6799
▁transported	-6800
ema	-6801
iac	-6802
rad	-6803
una	-6804
▁5-	-6805
▁Gh	-6806
atas	-6807
onze	-6808
rawl	-6809
▁31,	-6810
▁Did	-6811
▁Emb	-6812
▁Nic	-6813
▁Toy	-6814
▁ash	-6815
▁pup	-6816
ailed	-6817
burgh	-6818
ented	-6819
rated	-6820
veill	-6821
▁Also	-6822
▁Care	-6823
▁Cech	-6824
▁Fred	-6825
▁lift	-6826
▁pace	-6827
ecause	-6828
isions	-6829
lished	-6830
onight	-6831
▁2010.	-6832
▁Phill	-6833
▁Today	-6834
▁snake	-6835
amedics	-6836
▁admits	-6837
▁mascot	-6838
▁narrow	-6839
▁spirit	-6840
▁Academy	-6841
▁Bradley	-6842
▁classic	-6843
▁proceed	-6844
▁volunte	-6845
ification	-6846
▁McCarthy	-6847
▁attacker	-6848
▁collided	-6849
▁disaster	-6850
▁remember	-6851
▁sporting	-6852
▁attracted	-6853
▁providing	-6854
▁Associated	-6855
▁casualties	-6856
▁vocabulary	-6857
▁Ibrahimovic	-6858
▁traditional	-6859
Man	-6860
bow	-6861
odd	-6862
▁4,	-6863
▁Ha	-6864
amel	-6865
avez	-6866
eren	-6867
icit	-6868
oses	-6869
rell	-6870
▁14-	-6871
▁4-1	-6872
▁Bul	-6873
▁Div	-6874
▁Dri	-6875
▁Mit	-6876
▁Was	-6877
arged	-6878
athon	-6879
ierre	-6880
▁2004	-6881
▁Live	-6882
▁Love	-6883
▁2009,	-6884
▁Guine	-6885
▁Hotel	-6886
▁Women	-6887
▁burst	-6888
▁leads	-6889
▁loved	-6890
▁reign	-6891
▁Chavez	-6892
▁decade	-6893
▁extend	-6894
▁trains	-6895
▁Alexand	-6896
▁Orlando	-6897
▁journey	-6898
▁Zimbabwe	-6899
▁injuring	-6900
▁stunning	-6901
▁assaulted	-6902
▁establish	-6903
▁completing	-6904
▁comprehension	-6905
aws	-6906
▁Es	-6907
▁MK	-6908
aray	-6909
iere	-6910
ware	-6911
▁Bre	-6912
▁Sri	-6913
▁eur	-6914
oster	-6915
stone	-6916
▁Corn	-6917
▁Dave	-6918
▁Kate	-6919
▁Line	-6920
▁Moto	-6921
▁Pope	-6922
▁lady	-6923
arrass	-6924
▁lying	-6925
assador	-6926
ictions	-6927
▁eating	-6928
▁guests	-6929
▁immigr	-6930
▁status	-6931
▁Austria	-6932
▁Barbara	-6933
▁Seattle	-6934
▁dispute	-6935
▁package	-6936
▁Director	-6937
▁directed	-6938
▁extended	-6939
▁Transport	-6940
▁Wozniacki	-6941
▁candidate	-6942
▁contained	-6943
▁franchise	-6944
▁religious	-6945
Ch	-6946
axy	-6947
▁Ay	-6948
beck	-6949
cini	-6950
yard	-6951
▁6-1	-6952
▁Jen	-6953
▁Lov	-6954
▁Pen	-6955
▁gat	-6956
▁gro	-6957
agged	-6958
owers	-6959
umped	-6960
▁Food	-6961
▁Kenn	-6962
izarre	-6963
▁Radio	-6964
▁Sakho	-6965
▁angry	-6966
▁fraud	-6967
▁posts	-6968
▁Gordon	-6969
▁Howard	-6970
▁Survey	-6971
▁Walker	-6972
▁blamed	-6973
▁cruise	-6974
▁demand	-6975
▁quoted	-6976
▁rapper	-6977
▁tested	-6978
▁McIlroy	-6979
▁Rolling	-6980
▁caption	-6981
▁undergo	-6982
▁watches	-6983
▁Athletic	-6984
▁homicide	-6985
▁numerous	-6986
▁proposed	-6987
▁stealing	-6988
▁strength	-6989
▁unveiled	-6990
▁kidnapping	-6991
cht	-6992
nam	-6993
tha	-6994
bane	-6995
iola	-6996
mand	-6997
onna	-6998
▁Mrs	-6999
▁scr	-7000
eller	-7001
rough	-7002
▁Joel	-7003
▁jobs	-7004
▁ones	-7005
▁stri	-7006
▁Allen	-7007
▁deton	-7008
▁learn	-7009
▁roles	-7010
▁stood	-7011
▁Darren	-7012
▁Harris	-7013
▁Kansas	-7014
▁Patrol	-7015
▁Valley	-7016
▁assess	-7017
▁models	-7018
▁superb	-7019
▁conclud	-7020
▁filming	-7021
▁gunshot	-7022
▁perhaps	-7023
▁Kentucky	-7024
▁burglary	-7025
▁comeback	-7026
▁specific	-7027
▁followers	-7028
▁southwest	-7029
▁compatriot	-7030
21	-7031
5.	-7032
DF	-7033
GP	-7034
CTV	-7035
azz	-7036
vez	-7037
ablo	-7038
idal	-7039
iner	-7040
ivan	-7041
lete	-7042
utes	-7043
▁Abb	-7044
▁Exp	-7045
▁Ric	-7046
▁mos	-7047
illas	-7048
rozen	-7049
▁Eden	-7050
▁Hamp	-7051
▁Whit	-7052
▁todd	-7053
▁Adams	-7054
▁Honda	-7055
▁Light	-7056
▁Mayor	-7057
▁Perry	-7058
▁Strik	-7059
▁apart	-7060
▁upset	-7061
utation	-7062
▁Before	-7063
▁Graham	-7064
▁Knight	-7065
▁Oliver	-7066
▁Shiite	-7067
▁burned	-7068
▁hidden	-7069
▁intern	-7070
▁necess	-7071
▁spoken	-7072
▁Connect	-7073
▁hopeful	-7074
▁staying	-7075
▁triumph	-7076
▁Campbell	-7077
▁canceled	-7078
▁thoughts	-7079
▁brilliant	-7080
▁hospitals	-7081
▁Philippines	-7082
▁(3	-7083
acht	-7084
ette	-7085
icut	-7086
olas	-7087
osen	-7088
▁Ven	-7089
▁Bris	-7090
▁Like	-7091
▁Rand	-7092
▁Stef	-7093
▁arch	-7094
▁pole	-7095
▁snap	-7096
ecting	-7097
▁Evans	-7098
▁Floyd	-7099
▁Griff	-7100
▁Paulo	-7101
▁maybe	-7102
▁metal	-7103
▁sense	-7104
▁trust	-7105
berlain	-7106
istance	-7107
▁choose	-7108
▁dating	-7109
▁rebels	-7110
▁stores	-7111
▁territ	-7112
▁tweets	-7113
▁cricket	-7114
▁fixture	-7115
▁funeral	-7116
▁maximum	-7117
▁identity	-7118
▁overturn	-7119
▁northwest	-7120
▁negotiations	-7121
iy	-7122
eld	-7123
▁Ky	-7124
etta	-7125
iago	-7126
rial	-7127
▁Arn	-7128
▁Dam	-7129
▁Seb	-7130
▁bud	-7131
▁hip	-7132
igers	-7133
lying	-7134
ption	-7135
riate	-7136
▁Blue	-7137
▁Kath	-7138
▁Sony	-7139
▁Sunn	-7140
▁cock	-7141
▁luck	-7142
▁migr	-7143
brough	-7144
napped	-7145
▁Memph	-7146
▁stuff	-7147
western	-7148
▁Alexis	-7149
▁gunman	-7150
▁regime	-7151
▁reward	-7152
▁grabbed	-7153
▁justice	-7154
▁Dutchman	-7155
▁Colombian	-7156
▁targeting	-7157
▁Connecticut	-7158
▁established	-7159
▁threatening	-7160
oln	-7161
▁42	-7162
▁Ak	-7163
▁Ho	-7164
▁Zh	-7165
▁eg	-7166
▁ur	-7167
fica	-7168
ipal	-7169
olis	-7170
▁28,	-7171
▁Deb	-7172
▁Duc	-7173
etime	-7174
▁Cust	-7175
▁Dead	-7176
▁Gard	-7177
▁Hear	-7178
▁Jean	-7179
▁Oliv	-7180
▁Stew	-7181
▁iPad	-7182
▁joke	-7183
▁skin	-7184
▁Delhi	-7185
▁bound	-7186
▁limit	-7187
▁Square	-7188
▁combat	-7189
▁except	-7190
▁remote	-7191
▁summit	-7192
istrates	-7193
▁Memphis	-7194
▁council	-7195
▁circumst	-7196
▁insisted	-7197
▁inspired	-7198
▁reaching	-7199
▁resigned	-7200
▁supposed	-7201
▁withdraw	-7202
▁Guardiola	-7203
▁defending	-7204
▁direction	-7205
▁recording	-7206
▁Middlesbrough	-7207
awa	-7208
aith	-7209
asts	-7210
bled	-7211
illo	-7212
wall	-7213
wick	-7214
▁cub	-7215
actor	-7216
apova	-7217
ician	-7218
ifted	-7219
▁Home	-7220
▁Lady	-7221
▁Then	-7222
▁Trip	-7223
▁bars	-7224
▁blog	-7225
▁coff	-7226
▁foul	-7227
▁tens	-7228
▁2014.	-7229
▁newly	-7230
▁ships	-7231
▁Eagles	-7232
▁Etihad	-7233
▁bronze	-7234
▁devast	-7235
▁poison	-7236
▁smiles	-7237
▁Several	-7238
▁Simeone	-7239
▁checked	-7240
▁elected	-7241
▁missile	-7242
▁Islamist	-7243
▁Michelle	-7244
▁Midfield	-7245
▁attached	-7246
▁audience	-7247
▁battling	-7248
▁possibly	-7249
▁Sharapova	-7250
▁reporting	-7251
▁terrorism	-7252
▁footballer	-7253
DA	-7254
sa	-7255
For	-7256
SAF	-7257
▁5,	-7258
▁Sk	-7259
▁ju	-7260
anic	-7261
chor	-7262
eces	-7263
hand	-7264
ogba	-7265
opsy	-7266
oven	-7267
▁Aff	-7268
▁Ann	-7269
▁Vol	-7270
▁lux	-7271
istol	-7272
rying	-7273
usion	-7274
▁Drog	-7275
▁Duke	-7276
▁ISAF	-7277
▁canc	-7278
▁earn	-7279
▁prin	-7280
▁task	-7281
▁ties	-7282
▁vari	-7283
allana	-7284
▁2009.	-7285
▁Billy	-7286
▁Fabio	-7287
▁Ivory	-7288
▁Milit	-7289
▁Pogba	-7290
▁autom	-7291
▁brown	-7292
▁hoped	-7293
▁royal	-7294
▁shark	-7295
▁Aguero	-7296
▁Commit	-7297
▁adults	-7298
▁dinner	-7299
▁notice	-7300
▁retail	-7301
▁soccer	-7302
▁surviv	-7303
▁Airways	-7304
▁Alabama	-7305
▁Benfica	-7306
▁Embassy	-7307
▁Thompson	-7308
▁clothing	-7309
▁gathered	-7310
▁Louisiana	-7311
▁embarrass	-7312
▁kidnapped	-7313
▁producing	-7314
fortunately	-7315
▁surrounding	-7316
▁disappointing	-7317
aro	-7318
aux	-7319
err	-7320
ims	-7321
mun	-7322
▁Ku	-7323
lade	-7324
▁Gus	-7325
▁adj	-7326
▁arr	-7327
itute	-7328
▁Best	-7329
▁Gaza	-7330
▁Viet	-7331
▁mile	-7332
▁plot	-7333
lement	-7334
mother	-7335
▁2008.	-7336
▁Crime	-7337
▁Seoul	-7338
▁cabin	-7339
▁seats	-7340
▁strip	-7341
ashable	-7342
letcher	-7343
▁50,000	-7344
▁Cooper	-7345
▁Guinea	-7346
▁myster	-7347
▁planes	-7348
▁tattoo	-7349
▁widely	-7350
atasaray	-7351
▁spectac	-7352
▁tragedy	-7353
▁informed	-7354
▁developed	-7355
▁nominated	-7356
▁residence	-7357
▁criticised	-7358
▁outstanding	-7359
An	-7360
CC	-7361
iar	-7362
ante	-7363
fits	-7364
uers	-7365
▁Dia	-7366
▁Eto	-7367
▁gym	-7368
▁rif	-7369
cedes	-7370
iracy	-7371
otten	-7372
▁CCTV	-7373
▁ISIS	-7374
▁Salv	-7375
▁murd	-7376
orious	-7377
▁Media	-7378
▁Singh	-7379
▁airst	-7380
▁rehab	-7381
▁Jeremy	-7382
▁anonym	-7383
▁breaks	-7384
▁driven	-7385
▁shares	-7386
▁Lallana	-7387
▁Lebanon	-7388
▁Mancini	-7389
▁Stewart	-7390
▁Welbeck	-7391
▁convers	-7392
▁opponent	-7393
▁abandoned	-7394
▁explained	-7395
▁Foundation	-7396
▁assistance	-7397
▁registered	-7398
▁retirement	-7399
▁disappointed	-7400
cr	-7401
-20	-7402
urd	-7403
▁33,	-7404
▁600	-7405
▁Bes	-7406
▁CIA	-7407
▁Cop	-7408
▁Hom	-7409
▁McL	-7410
▁Base	-7411
▁Core	-7412
▁Dick	-7413
▁Life	-7414
▁Sale	-7415
▁debt	-7416
▁forg	-7417
▁soft	-7418
▁trio	-7419
▁Board	-7420
▁Brand	-7421
▁Hills	-7422
▁drunk	-7423
▁funny	-7424
▁ninth	-7425
▁Drogba	-7426
▁MotoGP	-7427
▁Serbia	-7428
▁Spring	-7429
▁metres	-7430
▁pilots	-7431
▁plenty	-7432
▁cleared	-7433
▁correct	-7434
▁Cameroon	-7435
▁Fletcher	-7436
▁agencies	-7437
▁exercise	-7438
▁killings	-7439
▁regional	-7440
▁Fernandez	-7441
▁Islamabad	-7442
▁competing	-7443
▁Republican	-7444
▁collection	-7445
▁Galatasaray	-7446
.-	-7447
ek	-7448
bar	-7449
▁8,	-7450
▁CA	-7451
What	-7452
olph	-7453
rera	-7454
▁11.	-7455
▁Gil	-7456
▁Jew	-7457
▁bin	-7458
▁odd	-7459
berto	-7460
ecial	-7461
enses	-7462
▁Adeb	-7463
▁Bark	-7464
▁Cair	-7465
▁Fest	-7466
▁Girl	-7467
▁plus	-7468
▁pupp	-7469
estone	-7470
ipping	-7471
▁3,000	-7472
▁dates	-7473
▁flown	-7474
▁langu	-7475
▁rider	-7476
▁Arabia	-7477
▁Lisbon	-7478
▁Nether	-7479
▁estate	-7480
▁lights	-7481
▁mostly	-7482
▁object	-7483
▁toilet	-7484
ximately	-7485
▁Notting	-7486
▁bizarre	-7487
▁reveals	-7488
veillance	-7489
▁Brisbane	-7490
▁McDonald	-7491
▁attending	-7492
▁underwent	-7493
▁Queensland	-7494
▁supporting	-7495
25	-7496
Al	-7497
Bl	-7498
ali	-7499
ams	-7500
uzz	-7501
▁Dy	-7502
▁Na	-7503
▁ir	-7504
Star	-7505
bean	-7506
gart	-7507
ogan	-7508
osal	-7509
uals	-7510
unes	-7511
▁36-	-7512
▁Dur	-7513
▁Jun	-7514
▁Kal	-7515
▁Lad	-7516
▁Sao	-7517
▁sed	-7518
icial	-7519
omach	-7520
▁Bath	-7521
▁Cesc	-7522
▁Karl	-7523
▁Reid	-7524
alling	-7525
encing	-7526
incoln	-7527
ources	-7528
ration	-7529
▁Blind	-7530
▁Major	-7531
▁Match	-7532
▁Moroc	-7533
▁Night	-7534
▁Organ	-7535
▁Rossi	-7536
▁Rugby	-7537
▁analy	-7538
▁burns	-7539
▁cited	-7540
▁stock	-7541
unities	-7542
▁Javier	-7543
▁Labour	-7544
▁Ukrain	-7545
▁beauty	-7546
▁bigger	-7547
▁bullet	-7548
▁expert	-7549
▁luxury	-7550
▁permit	-7551
▁Brother	-7552
▁appreci	-7553
▁becomes	-7554
▁example	-7555
▁fishing	-7556
▁shelter	-7557
▁unnamed	-7558
▁Bromwich	-7559
▁Mohammed	-7560
▁approved	-7561
▁deputies	-7562
▁intended	-7563
▁Authority	-7564
▁northeast	-7565
▁complained	-7566
▁Netherlands	-7567
▁comfortable	-7568
▁disappeared	-7569
▁represented	-7570
▁circumstances	-7571
OW	-7572
-16	-7573
gar	-7574
tag	-7575
▁MP	-7576
illy	-7577
mart	-7578
▁16,	-7579
▁Cam	-7580
▁psy	-7581
aying	-7582
eding	-7583
rific	-7584
▁Cath	-7585
▁Cuba	-7586
▁Phot	-7587
▁Rica	-7588
▁Shel	-7589
▁flat	-7590
▁nice	-7591
ellent	-7592
enoord	-7593
kinson	-7594
olitan	-7595
▁Carib	-7596
▁Krist	-7597
▁Lazio	-7598
▁Staff	-7599
▁eleph	-7600
▁trick	-7601
▁Galaxy	-7602
▁Mackay	-7603
▁Marcel	-7604
▁Sweden	-7605
▁Thanks	-7606
▁Valent	-7607
▁locked	-7608
▁modern	-7609
▁parked	-7610
▁Denmark	-7611
▁achieve	-7612
▁alerted	-7613
▁pleased	-7614
▁stomach	-7615
▁Mercedes	-7616
▁striking	-7617
▁Feyenoord	-7618
▁Wolfsburg	-7619
▁delivered	-7620
▁opponents	-7621
▁signature	-7622
▁Nottingham	-7623
▁residential	-7624
▁administration	-7625
200	-7626
obi	-7627
umn	-7628
Cham	-7629
abor	-7630
izes	-7631
kick	-7632
road	-7633
sung	-7634
▁17,	-7635
▁Gea	-7636
▁Nig	-7637
▁Sin	-7638
▁bol	-7639
▁tip	-7640
andro	-7641
aware	-7642
rings	-7643
ureau	-7644
▁1990	-7645
▁Bron	-7646
▁Dean	-7647
▁calm	-7648
▁cuts	-7649
▁fake	-7650
▁hall	-7651
▁mall	-7652
beaten	-7653
▁Short	-7654
▁Upton	-7655
▁noted	-7656
▁ocean	-7657
▁Oxlade	-7658
▁bright	-7659
▁hosted	-7660
▁overse	-7661
▁stream	-7662
▁Blatter	-7663
▁Instead	-7664
▁Jessica	-7665
▁command	-7666
▁culture	-7667
▁degrees	-7668
▁patient	-7669
▁Missouri	-7670
▁argument	-7671
▁downtown	-7672
▁recalled	-7673
▁Caribbean	-7674
▁Committee	-7675
▁Witnesses	-7676
Chamberlain	-7677
▁facilities	-7678
▁partnership	-7679
ais	-7680
can	-7681
zai	-7682
▁41	-7683
▁85	-7684
▁Gi	-7685
▁NY	-7686
▁Sz	-7687
arry	-7688
onia	-7689
pass	-7690
▁Pho	-7691
▁Sel	-7692
unnel	-7693
▁Loft	-7694
▁aren	-7695
aching	-7696
atched	-7697
covery	-7698
▁naked	-7699
▁quiet	-7700
▁chosen	-7701
▁cooper	-7702
▁kicked	-7703
▁refuge	-7704
▁slight	-7705
▁Algeria	-7706
▁Doctors	-7707
▁century	-7708
▁content	-7709
▁prayers	-7710
▁Services	-7711
▁greatest	-7712
▁movement	-7713
▁promised	-7714
▁teammate	-7715
▁desperate	-7716
▁substance	-7717
IV	-7718
aab	-7719
afi	-7720
ampa	-7721
angh	-7722
gate	-7723
olic	-7724
umed	-7725
▁Est	-7726
▁Hus	-7727
▁Its	-7728
▁Pit	-7729
▁Tai	-7730
▁awa	-7731
▁lig	-7732
▁tim	-7733
▁unh	-7734
icken	-7735
uster	-7736
▁2001	-7737
▁Capt	-7738
▁Cher	-7739
▁Gill	-7740
▁Next	-7741
▁Pent	-7742
▁Sami	-7743
▁Wind	-7744
▁boun	-7745
▁recr	-7746
▁Alves	-7747
▁Sarah	-7748
▁Seven	-7749
▁Those	-7750
▁alter	-7751
▁cruel	-7752
▁skull	-7753
▁trend	-7754
ections	-7755
olutely	-7756
▁Castro	-7757
▁Tigers	-7758
▁Winter	-7759
▁boxing	-7760
▁iconic	-7761
▁infant	-7762
▁stayed	-7763
▁studio	-7764
▁Beckham	-7765
▁Neville	-7766
▁grounds	-7767
▁measure	-7768
▁smashed	-7769
▁toddler	-7770
▁worried	-7771
▁Nigerian	-7772
▁distance	-7773
▁dressing	-7774
▁outbreak	-7775
▁schedule	-7776
▁signings	-7777
▁Cambridge	-7778
▁Henderson	-7779
▁appearing	-7780
▁emotional	-7781
▁confidence	-7782
LA	-7783
oom	-7784
▁AN	-7785
mosp	-7786
roit	-7787
roke	-7788
▁13-	-7789
▁Dun	-7790
▁End	-7791
▁LeB	-7792
▁jew	-7793
acity	-7794
anche	-7795
apers	-7796
lines	-7797
pical	-7798
trick	-7799
where	-7800
▁Gram	-7801
▁Mick	-7802
▁Mull	-7803
▁Nash	-7804
▁gear	-7805
▁scre	-7806
▁Exper	-7807
▁Marse	-7808
▁Music	-7809
▁Ramos	-7810
▁grass	-7811
▁tiger	-7812
▁Boxing	-7813
▁Ramsey	-7814
▁finals	-7815
▁mosque	-7816
▁netted	-7817
▁Detroit	-7818
▁Muslims	-7819
▁autopsy	-7820
▁clashes	-7821
▁crucial	-7822
▁cutting	-7823
▁shuttle	-7824
▁tornado	-7825
▁windows	-7826
▁frontman	-7827
▁infection	-7828
▁necessary	-7829
▁prisoners	-7830
▁preliminary	-7831
70	-7832
adh	-7833
aki	-7834
pet	-7835
rus	-7836
▁ho	-7837
itar	-7838
keep	-7839
▁2-2	-7840
▁Joh	-7841
▁Pap	-7842
▁Rap	-7843
▁Ret	-7844
▁Row	-7845
▁Rub	-7846
▁cig	-7847
▁joy	-7848
▁Luiz	-7849
▁Petr	-7850
▁Prin	-7851
▁cann	-7852
▁mort	-7853
▁reop	-7854
▁tele	-7855
ycling	-7856
▁Ahmad	-7857
▁Brady	-7858
▁Nasri	-7859
▁Tevez	-7860
▁Water	-7861
▁fault	-7862
▁sanct	-7863
quiries	-7864
▁Ballon	-7865
▁Fisher	-7866
▁Robben	-7867
▁altern	-7868
▁formed	-7869
▁gained	-7870
▁height	-7871
▁phones	-7872
▁subway	-7873
inations	-7874
▁clothes	-7875
▁dollars	-7876
▁install	-7877
▁strengt	-7878
▁airstrik	-7879
▁crashing	-7880
▁talented	-7881
▁tomorrow	-7882
▁Marseille	-7883
▁excellent	-7884
▁probation	-7885
▁surprised	-7886
▁temporary	-7887
▁introduced	-7888
▁independent	-7889
▁opportunities	-7890
60	-7891
Af	-7892
HS	-7893
dy	-7894
PLE	-7895
och	-7896
▁Er	-7897
▁SU	-7898
▁Wr	-7899
enix	-7900
▁15,	-7901
▁Gov	-7902
▁Jay	-7903
▁tre	-7904
abies	-7905
iment	-7906
inion	-7907
▁Brun	-7908
▁Each	-7909
▁Owen	-7910
▁Yaya	-7911
▁bull	-7912
▁cycl	-7913
▁jets	-7914
▁pink	-7915
▁pled	-7916
▁porn	-7917
▁sits	-7918
▁tort	-7919
▁weak	-7920
celand	-7921
inking	-7922
▁Lucas	-7923
▁Nigel	-7924
▁Putin	-7925
▁Stars	-7926
▁cream	-7927
▁notes	-7928
▁worse	-7929
▁Giroud	-7930
▁Hondur	-7931
▁Samuel	-7932
▁Somali	-7933
▁gather	-7934
▁marked	-7935
▁spring	-7936
▁Lincoln	-7937
▁Phoenix	-7938
▁Swedish	-7939
▁carrier	-7940
▁delayed	-7941
▁happens	-7942
▁singles	-7943
ropolitan	-7944
▁Festival	-7945
▁historic	-7946
▁Discovery	-7947
▁Ukrainian	-7948
▁celebrity	-7949
▁teenagers	-7950
▁controlled	-7951
▁reputation	-7952
▁involvement	-7953
▁potentially	-7954
bu	-7955
100	-7956
400	-7957
All	-7958
OLL	-7959
alo	-7960
bul	-7961
raf	-7962
tim	-7963
▁52	-7964
▁68	-7965
▁7,	-7966
▁Sa	-7967
▁py	-7968
anor	-7969
ippi	-7970
quel	-7971
razy	-7972
rupt	-7973
▁Neg	-7974
▁Pop	-7975
▁Why	-7976
▁nav	-7977
EOPLE	-7978
aping	-7979
apore	-7980
idesp	-7981
place	-7982
▁1980	-7983
▁Beat	-7984
▁Hold	-7985
▁Horn	-7986
▁Lenn	-7987
▁Orig	-7988
▁coin	-7989
▁vent	-7990
anghai	-7991
elfare	-7992
estyle	-7993
▁Daley	-7994
▁Eight	-7995
▁Ghana	-7996
▁Lanka	-7997
▁Marad	-7998
▁Muham	-7999
▁Ryder	-8000
▁Seneg	-8001
▁Swift	-8002
▁swept	-8003
▁Nathan	-8004
▁degree	-8005
▁indict	-8006
▁manage	-8007
▁remind	-8008
▁tragic	-8009
aughters	-8010
▁College	-8011
▁Iceland	-8012
▁Mississ	-8013
▁dancing	-8014
▁license	-8015
▁pending	-8016
▁pirates	-8017
idespread	-8018
▁Lawrence	-8019
▁Malaysia	-8020
▁Shanghai	-8021
▁tropical	-8022
▁commander	-8023
▁criticism	-8024
▁indicated	-8025
▁Midfielder	-8026
▁businesses	-8027
▁difference	-8028
▁environmental	-8029
':	-8030
Sp	-8031
ser	-8032
▁43	-8033
▁44	-8034
▁47	-8035
▁6,	-8036
Shab	-8037
abeu	-8038
aire	-8039
aled	-8040
case	-8041
hire	-8042
icts	-8043
▁32,	-8044
▁Bon	-8045
▁Ces	-8046
▁Kaz	-8047
▁Rac	-8048
▁ded	-8049
▁nov	-8050
istle	-8051
umber	-8052
▁Carr	-8053
▁Pere	-8054
▁Utah	-8055
▁dies	-8056
▁eval	-8057
▁leak	-8058
▁stem	-8059
atever	-8060
linary	-8061
makers	-8062
ouring	-8063
▁Class	-8064
▁Keane	-8065
▁Lukas	-8066
▁Quest	-8067
▁overs	-8068
▁resol	-8069
▁roads	-8070
▁smile	-8071
▁teens	-8072
▁Travel	-8073
▁advice	-8074
▁causes	-8075
▁finger	-8076
▁motorc	-8077
▁relief	-8078
▁rising	-8079
▁scenes	-8080
▁attract	-8081
▁concent	-8082
▁confron	-8083
▁passion	-8084
▁Bernabeu	-8085
▁Maradona	-8086
▁creating	-8087
▁instruct	-8088
▁purchase	-8089
▁swimming	-8090
▁procedure	-8091
▁regularly	-8092
▁candidates	-8093
▁punishment	-8094
▁Mississippi	-8095
▁destination	-8096
▁approximately	-8097
OS	-8098
:15	-8099
▁CD	-8100
alem	-8101
bach	-8102
eway	-8103
gies	-8104
list	-8105
zing	-8106
▁34-	-8107
▁Ark	-8108
▁Bil	-8109
▁Jak	-8110
▁Nep	-8111
▁PGA	-8112
▁Sub	-8113
▁ant	-8114
adesh	-8115
oving	-8116
ubbed	-8117
▁Conf	-8118
▁Expl	-8119
▁gain	-8120
▁king	-8121
▁loud	-8122
▁peak	-8123
▁samp	-8124
▁2007.	-8125
▁Chall	-8126
▁Greek	-8127
▁Tyson	-8128
▁cargo	-8129
▁chart	-8130
▁derby	-8131
▁drawn	-8132
▁marks	-8133
▁occup	-8134
▁prank	-8135
▁weren	-8136
▁Border	-8137
▁Loftus	-8138
▁Second	-8139
▁Socied	-8140
▁Toyota	-8141
▁chocol	-8142
▁coffee	-8143
▁covers	-8144
▁filled	-8145
▁formal	-8146
▁muscle	-8147
▁Samsung	-8148
▁Vietnam	-8149
▁burning	-8150
▁channel	-8151
▁embassy	-8152
▁erupted	-8153
▁focused	-8154
▁qualify	-8155
▁spirits	-8156
▁trainer	-8157
▁Sherwood	-8158
▁bathroom	-8159
▁customer	-8160
▁deployed	-8161
▁diverted	-8162
▁suddenly	-8163
▁Sebastian	-8164
▁Singapore	-8165
▁diagnosed	-8166
▁fractured	-8167
▁obviously	-8168
▁widespread	-8169
▁Palestinian	-8170
▁Prosecutors	-8171
▁trafficking	-8172
10	-8173
Ne	-8174
abi	-8175
hem	-8176
lan	-8177
oca	-8178
esty	-8179
iggs	-8180
ompl	-8181
▁12.	-8182
▁40-	-8183
▁MME	-8184
▁Nik	-8185
▁SUV	-8186
▁Sut	-8187
▁nor	-8188
▁pod	-8189
▁Bosn	-8190
▁Only	-8191
▁Your	-8192
▁bare	-8193
▁lung	-8194
▁nurs	-8195
▁sett	-8196
ounted	-8197
▁2006.	-8198
▁Award	-8199
▁Grant	-8200
▁Tampa	-8201
▁Tiger	-8202
▁behav	-8203
▁birds	-8204
▁crown	-8205
▁doors	-8206
▁flash	-8207
▁funds	-8208
▁ranks	-8209
▁renew	-8210
▁rural	-8211
▁sites	-8212
▁songs	-8213
▁walks	-8214
ullivan	-8215
viation	-8216
▁Donald	-8217
▁Friend	-8218
▁Joshua	-8219
▁Marcos	-8220
▁Museum	-8221
▁Report	-8222
▁budget	-8223
▁conced	-8224
▁harass	-8225
▁header	-8226
▁master	-8227
▁monkey	-8228
▁paying	-8229
▁raping	-8230
▁rolled	-8231
▁Company	-8232
▁Footage	-8233
▁Indiana	-8234
▁Pearson	-8235
▁Sociedad	-8236
▁throwing	-8237
▁unbeaten	-8238
▁youngest	-8239
▁Venezuela	-8240
▁daughters	-8241
▁hurricane	-8242
▁superstar	-8243
▁characters	-8244
▁questioning	-8245
▁transferred	-8246
kus	-8247
nic	-8248
olo	-8249
▁09	-8250
▁Ru	-8251
▁ll	-8252
emic	-8253
irds	-8254
ocks	-8255
▁Alf	-8256
▁Amb	-8257
▁Amy	-8258
▁Gon	-8259
▁Lyn	-8260
▁Ron	-8261
▁hij	-8262
▁pip	-8263
Every	-8264
fried	-8265
ivity	-8266
jamin	-8267
worth	-8268
▁Thai	-8269
▁buck	-8270
▁ends	-8271
▁hunt	-8272
▁lies	-8273
▁ment	-8274
▁ramp	-8275
inging	-8276
yanmar	-8277
▁2007,	-8278
▁Jimmy	-8279
▁Jorge	-8280
▁Lever	-8281
▁Pablo	-8282
▁Sunni	-8283
▁boxer	-8284
▁intox	-8285
▁rally	-8286
▁whale	-8287
Germain	-8288
erlecht	-8289
▁Animal	-8290
▁Wanted	-8291
▁runway	-8292
▁simple	-8293
▁Channel	-8294
▁Walcott	-8295
▁coaches	-8296
▁fastest	-8297
▁greater	-8298
▁promote	-8299
▁slammed	-8300
▁systems	-8301
▁Caroline	-8302
▁Casillas	-8303
▁midnight	-8304
▁stations	-8305
▁meanwhile	-8306
▁penalties	-8307
▁regarding	-8308
▁relatives	-8309
▁Anderlecht	-8310
▁highlights	-8311
▁repeatedly	-8312
▁photographs	-8313
▁surveillance	-8314
azor	-8315
elta	-8316
▁11,	-8317
▁Has	-8318
▁Rev	-8319
▁Tan	-8320
▁cul	-8321
▁mic	-8322
▁pel	-8323
works	-8324
▁Josh	-8325
▁Orle	-8326
▁Song	-8327
▁bats	-8328
▁fill	-8329
▁spin	-8330
apolis	-8331
istent	-8332
▁Creek	-8333
▁Final	-8334
▁Laura	-8335
▁chain	-8336
▁chase	-8337
▁faith	-8338
▁stamp	-8339
▁truly	-8340
ression	-8341
uations	-8342
▁Avenue	-8343
▁Didier	-8344
▁Player	-8345
▁afford	-8346
▁reduce	-8347
▁repair	-8348
▁spells	-8349
▁whales	-8350
atherine	-8351
▁Radamel	-8352
▁Tunisia	-8353
▁accompl	-8354
▁answers	-8355
▁coroner	-8356
▁doubles	-8357
▁festive	-8358
▁freedom	-8359
▁granted	-8360
▁jumping	-8361
▁reduced	-8362
▁internal	-8363
▁longtime	-8364
▁rankings	-8365
▁roadside	-8366
▁shocking	-8367
▁Lancaster	-8368
▁playmaker	-8369
▁celebrations	-8370
12	-8371
AA	-8372
ES	-8373
MA	-8374
ww	-8375
▁u	-8376
dam	-8377
iva	-8378
law	-8379
▁Oz	-8380
heim	-8381
iece	-8382
▁13,	-8383
▁3.5	-8384
▁40,	-8385
▁Arm	-8386
▁Dak	-8387
▁Kut	-8388
▁Mik	-8389
▁REA	-8390
▁bik	-8391
anied	-8392
enson	-8393
ining	-8394
ocket	-8395
quiry	-8396
rance	-8397
ticip	-8398
▁Cald	-8399
▁Fell	-8400
▁Head	-8401
▁Math	-8402
▁Peru	-8403
▁Shah	-8404
▁Work	-8405
▁calf	-8406
▁shar	-8407
ingham	-8408
▁aimed	-8409
▁links	-8410
▁postp	-8411
▁shoes	-8412
▁throw	-8413
▁venue	-8414
itarian	-8415
▁Denver	-8416
▁Lennon	-8417
▁Murphy	-8418
▁Taiwan	-8419
▁buried	-8420
▁legisl	-8421
▁orders	-8422
▁sought	-8423
▁thinks	-8424
▁tunnel	-8425
▁Herrera	-8426
▁Mohamed	-8427
▁Myanmar	-8428
▁Orleans	-8429
▁bolster	-8430
▁founded	-8431
▁hunting	-8432
▁musical	-8433
▁privacy	-8434
▁species	-8435
▁wrapped	-8436
▁Hundreds	-8437
▁Memorial	-8438
▁accounts	-8439
▁learning	-8440
▁prospect	-8441
▁stabbing	-8442
▁monitoring	-8443
▁protective	-8444
▁successive	-8445
▁spectacular	-8446
80	-8447
Le	-8448
hs	-8449
box	-8450
bus	-8451
exp	-8452
tel	-8453
uro	-8454
▁05	-8455
▁07	-8456
▁GP	-8457
▁XI	-8458
▁ut	-8459
agle	-8460
deme	-8461
ermo	-8462
girl	-8463
hess	-8464
quez	-8465
redo	-8466
▁0-0	-8467
▁Dog	-8468
▁Fle	-8469
▁Oak	-8470
▁Osp	-8471
▁Raj	-8472
▁fet	-8473
▁lad	-8474
▁mud	-8475
▁rad	-8476
▁rib	-8477
▁tab	-8478
asion	-8479
icent	-8480
▁1970	-8481
▁Burg	-8482
▁Nine	-8483
▁Rojo	-8484
▁belt	-8485
▁grew	-8486
▁imag	-8487
▁intr	-8488
▁none	-8489
▁outr	-8490
▁sons	-8491
threat	-8492
urance	-8493
▁Alleg	-8494
▁Barry	-8495
▁Human	-8496
▁Sagna	-8497
▁basis	-8498
▁fires	-8499
▁inaug	-8500
▁rates	-8501
essions	-8502
▁Deputy	-8503
▁Singer	-8504
▁advent	-8505
▁denies	-8506
▁resume	-8507
▁square	-8508
▁supply	-8509
▁Coleman	-8510
▁Rosberg	-8511
▁cigaret	-8512
▁divorce	-8513
▁welfare	-8514
▁changing	-8515
▁searched	-8516
▁sleeping	-8517
▁stranded	-8518
▁wildlife	-8519
▁occasions	-8520
▁publicist	-8521
▁travelled	-8522
▁wonderful	-8523
▁Geological	-8524
▁developing	-8525
▁explosions	-8526
▁journalist	-8527
▁individuals	-8528
▁Transportation	-8529
km	-8530
ye	-8531
ING	-8532
vin	-8533
aman	-8534
atem	-8535
rary	-8536
writ	-8537
yers	-8538
▁10,	-8539
▁11-	-8540
▁14,	-8541
▁202	-8542
▁250	-8543
▁Ald	-8544
▁Aut	-8545
▁Hal	-8546
▁hug	-8547
▁spr	-8548
▁unp	-8549
kusen	-8550
▁Chap	-8551
▁Copa	-8552
▁Free	-8553
▁Game	-8554
▁Hass	-8555
▁Oper	-8556
▁Rory	-8557
▁Thor	-8558
▁chat	-8559
▁dism	-8560
▁diss	-8561
▁tong	-8562
▁touc	-8563
asters	-8564
icians	-8565
istics	-8566
ocking	-8567
▁Congo	-8568
▁Delta	-8569
▁Jonny	-8570
▁Serge	-8571
▁Stock	-8572
▁chose	-8573
▁indic	-8574
▁initi	-8575
▁labor	-8576
▁queen	-8577
▁teeth	-8578
▁thief	-8579
respond	-8580
▁Anyone	-8581
▁allows	-8582
▁branch	-8583
▁campus	-8584
▁lasted	-8585
▁runner	-8586
▁earning	-8587
▁lawsuit	-8588
▁pushing	-8589
▁stunned	-8590
▁survive	-8591
▁Aviation	-8592
▁behavior	-8593
▁entering	-8594
▁publicly	-8595
▁reunited	-8596
▁standard	-8597
▁detonated	-8598
▁Leverkusen	-8599
▁corruption	-8600
▁scientists	-8601
▁discussions	-8602
▁respectively	-8603
9-	-8604
BLE	-8605
Mar	-8606
agg	-8607
cot	-8608
ieu	-8609
nan	-8610
ups	-8611
▁Hu	-8612
▁je	-8613
aven	-8614
roid	-8615
▁35-	-8616
▁Esc	-8617
▁Tob	-8618
▁web	-8619
agher	-8620
child	-8621
▁Mall	-8622
▁Once	-8623
▁Toff	-8624
▁nick	-8625
▁tail	-8626
▁taxi	-8627
▁unif	-8628
caster	-8629
enders	-8630
icious	-8631
iggins	-8632
insula	-8633
strong	-8634
▁Happy	-8635
▁Novak	-8636
▁Tomas	-8637
▁sorry	-8638
▁surge	-8639
▁behavi	-8640
▁firing	-8641
▁latter	-8642
▁loaded	-8643
▁pieces	-8644
▁talked	-8645
onscious	-8646
▁Catalan	-8647
▁Kingdom	-8648
▁McLaren	-8649
▁advised	-8650
▁anticip	-8651
▁chasing	-8652
▁conserv	-8653
▁crashes	-8654
▁devices	-8655
▁hanging	-8656
▁pulling	-8657
▁snapped	-8658
▁Atlantic	-8659
▁Benjamin	-8660
▁Business	-8661
▁abducted	-8662
▁crossing	-8663
▁homeless	-8664
▁notified	-8665
▁premiere	-8666
▁selected	-8667
▁supplies	-8668
▁Institute	-8669
▁condemned	-8670
▁selection	-8671
▁survivors	-8672
▁technical	-8673
▁Journalist	-8674
▁activities	-8675
▁assaulting	-8676
▁appointment	-8677
▁disciplinary	-8678
Ar	-8679
MT	-8680
OP	-8681
fi	-8682
How	-8683
azi	-8684
lee	-8685
opp	-8686
▁51	-8687
▁Pa	-8688
elle	-8689
feld	-8690
iven	-8691
mile	-8692
rosa	-8693
sein	-8694
sson	-8695
▁700	-8696
▁Lin	-8697
▁Maj	-8698
▁NHS	-8699
▁bru	-8700
astas	-8701
ested	-8702
istor	-8703
▁2000	-8704
▁Kier	-8705
▁Samp	-8706
▁adds	-8707
▁empt	-8708
▁enth	-8709
▁gate	-8710
inated	-8711
▁Blanc	-8712
▁Bulls	-8713
▁deals	-8714
▁greet	-8715
▁stops	-8716
Shabaab	-8717
▁30,000	-8718
▁Boeing	-8719
▁Grammy	-8720
▁Rovers	-8721
▁Sussex	-8722
▁escort	-8723
▁feared	-8724
▁landsl	-8725
▁ranked	-8726
▁stated	-8727
▁Collins	-8728
▁Command	-8729
▁edition	-8730
▁portray	-8731
▁praised	-8732
▁scandal	-8733
▁surface	-8734
▁whistle	-8735
▁Abdullah	-8736
▁Ivanovic	-8737
▁Maryland	-8738
▁demanded	-8739
▁forecast	-8740
▁normally	-8741
▁occasion	-8742
▁refugees	-8743
▁Following	-8744
▁entertain	-8745
▁teammates	-8746
▁ambassador	-8747
▁surrounded	-8748
50	-8749
Is	-8750
▁2-	-8751
▁66	-8752
▁77	-8753
ABLE	-8754
aldo	-8755
ista	-8756
othy	-8757
▁Mom	-8758
▁Pod	-8759
▁Rel	-8760
▁Rud	-8761
▁Tel	-8762
▁log	-8763
▁mal	-8764
▁ped	-8765
arget	-8766
ateur	-8767
onsin	-8768
rible	-8769
▁Pele	-8770
▁Pict	-8771
▁Rico	-8772
▁Wisc	-8773
▁Yang	-8774
▁astr	-8775
▁deem	-8776
▁encl	-8777
▁fier	-8778
azorla	-8779
closed	-8780
engers	-8781
▁Field	-8782
▁Istan	-8783
▁Peace	-8784
▁badly	-8785
▁react	-8786
▁shore	-8787
▁trigg	-8788
lookers	-8789
▁Clarke	-8790
▁brings	-8791
▁growth	-8792
▁guards	-8793
▁mental	-8794
▁sealed	-8795
earchers	-8796
ensation	-8797
▁Eastern	-8798
▁artists	-8799
▁hosting	-8800
▁primary	-8801
▁smoking	-8802
▁Istanbul	-8803
▁directly	-8804
▁indicted	-8805
▁obtained	-8806
▁Wisconsin	-8807
▁breathing	-8808
▁intention	-8809
▁purchased	-8810
▁requested	-8811
▁shootings	-8812
▁Interstate	-8813
▁spectators	-8814
OC	-8815
ji	-8816
sk	-8817
amm	-8818
awn	-8819
bye	-8820
kok	-8821
ogo	-8822
rle	-8823
rov	-8824
▁46	-8825
▁CS	-8826
aini	-8827
arms	-8828
otte	-8829
▁14.	-8830
▁35,	-8831
▁Dyn	-8832
▁Eve	-8833
▁Gat	-8834
▁Pil	-8835
▁swo	-8836
▁syn	-8837
chair	-8838
comed	-8839
essor	-8840
ierry	-8841
iesta	-8842
leman	-8843
uable	-8844
▁MASH	-8845
▁Prof	-8846
▁brut	-8847
▁drum	-8848
▁gest	-8849
▁hate	-8850
▁hook	-8851
▁inte	-8852
▁mine	-8853
idding	-8854
incial	-8855
uccess	-8856
ulture	-8857
▁Bryan	-8858
▁bears	-8859
▁label	-8860
▁princ	-8861
▁wrest	-8862
▁yacht	-8863
unction	-8864
▁Adebay	-8865
▁Andrea	-8866
▁Borini	-8867
▁Felipe	-8868
▁Kenyan	-8869
▁Mother	-8870
▁Secret	-8871
▁Warner	-8872
▁banner	-8873
▁clause	-8874
▁Bangkok	-8875
▁Cazorla	-8876
▁Liberty	-8877
▁Toffees	-8878
▁Weather	-8879
▁founder	-8880
▁largely	-8881
▁misdeme	-8882
▁reserve	-8883
▁stretch	-8884
▁capacity	-8885
▁compound	-8886
▁Challenge	-8887
▁neighbors	-8888
threatening	-8889
▁specialist	-8890
▁strengthen	-8891
▁Magistrates	-8892
▁accompanied	-8893
▁successfully	-8894
:45	-8895
erk	-8896
gie	-8897
ikt	-8898
mes	-8899
pat	-8900
▁06	-8901
▁54	-8902
▁Zl	-8903
arch	-8904
ctic	-8905
habi	-8906
heem	-8907
irty	-8908
magn	-8909
orns	-8910
rets	-8911
roso	-8912
spur	-8913
▁Kro	-8914
▁PDF	-8915
▁Ren	-8916
▁WTA	-8917
▁bra	-8918
▁cow	-8919
▁els	-8920
liest	-8921
▁1960	-8922
▁Erik	-8923
▁Fame	-8924
▁Ince	-8925
▁Lyon	-8926
▁Main	-8927
▁Supp	-8928
▁Thib	-8929
▁asks	-8930
▁hash	-8931
▁hide	-8932
flight	-8933
manuel	-8934
riages	-8935
▁Aleks	-8936
▁Cairo	-8937
▁Defoe	-8938
▁Dhabi	-8939
▁Kerry	-8940
▁advis	-8941
▁cliff	-8942
▁discl	-8943
▁email	-8944
▁fruit	-8945
▁hired	-8946
▁plung	-8947
▁twins	-8948
atively	-8949
ossible	-8950
▁Devils	-8951
▁Lovren	-8952
▁Philip	-8953
▁posing	-8954
▁Reports	-8955
▁Serbian	-8956
▁Special	-8957
▁bedroom	-8958
▁coastal	-8959
▁expects	-8960
▁variety	-8961
▁Honduras	-8962
▁MASHABLE	-8963
▁speeding	-8964
▁vacation	-8965
▁authority	-8966
▁behaviour	-8967
▁chocolate	-8968
▁connected	-8969
▁elsewhere	-8970
▁presenter	-8971
▁seemingly	-8972
▁selecting	-8973
▁sidelined	-8974
▁supporter	-8975
▁conviction	-8976
▁detectives	-8977
▁engagement	-8978
▁evacuation	-8979
▁protection	-8980
▁heavyweight	-8981
▁championships	-8982
▁organizations	-8983
MC	-8984
adr	-8985
don	-8986
how	-8987
hur	-8988
iab	-8989
upt	-8990
adow	-8991
bles	-8992
gian	-8993
inct	-8994
▁7-6	-8995
▁Eth	-8996
▁Kit	-8997
▁Les	-8998
▁Pas	-8999
▁mob	-9000
After	-9001
aired	-9002
chell	-9003
icked	-9004
immer	-9005
itors	-9006
neath	-9007
ronic	-9008
▁1998	-9009
▁Bart	-9010
▁Bond	-9011
▁Edin	-9012
▁Jong	-9013
▁Kard	-9014
▁Kiev	-9015
▁Kirk	-9016
▁Pres	-9017
▁READ	-9018
▁Said	-9019
▁ages	-9020
▁pets	-9021
ackers	-9022
adhafi	-9023
arreal	-9024
endent	-9025
father	-9026
▁Abdul	-9027
▁Firef	-9028
▁Haram	-9029
▁Manny	-9030
▁Woman	-9031
▁destr	-9032
▁error	-9033
▁euros	-9034
▁grown	-9035
▁rebel	-9036
▁smell	-9037
attered	-9038
▁Kieran	-9039
▁Powell	-9040
▁Raheem	-9041
▁Wolves	-9042
▁convoy	-9043
▁debate	-9044
▁dubbed	-9045
▁extent	-9046
▁garden	-9047
▁memory	-9048
▁motive	-9049
▁Captain	-9050
▁Thierry	-9051
▁athlete	-9052
▁bottles	-9053
▁caution	-9054
▁climbed	-9055
▁closely	-9056
▁diamond	-9057
▁islands	-9058
▁tonight	-9059
▁writing	-9060
ederation	-9061
▁Bradford	-9062
▁Muhammad	-9063
▁achieved	-9064
▁familiar	-9065
▁improved	-9066
▁overseas	-9067
▁Standards	-9068
▁legendary	-9069
▁magnitude	-9070
▁sidelines	-9071
▁Venezuelan	-9072
▁absolutely	-9073
▁afterwards	-9074
Br	-9075
KA	-9076
So	-9077
fe	-9078
kg	-9079
-21	-9080
igo	-9081
oop	-9082
....	-9083
acer	-9084
ache	-9085
alys	-9086
enna	-9087
glas	-9088
herd	-9089
olds	-9090
▁Bra	-9091
▁Der	-9092
▁Han	-9093
▁MTV	-9094
▁USS	-9095
▁lob	-9096
amine	-9097
early	-9098
venge	-9099
▁Chad	-9100
▁Chen	-9101
▁cats	-9102
▁dece	-9103
▁lake	-9104
▁rush	-9105
▁yard	-9106
aments	-9107
employ	-9108
harmed	-9109
ilding	-9110
rosoft	-9111
▁accus	-9112
▁blame	-9113
▁color	-9114
▁eager	-9115
▁spots	-9116
▁sprin	-9117
▁tower	-9118
▁wages	-9119
▁Parker	-9120
▁Serena	-9121
▁fights	-9122
▁guitar	-9123
▁intens	-9124
▁pursue	-9125
▁repeat	-9126
▁saving	-9127
▁tribal	-9128
▁Barkley	-9129
▁Hotspur	-9130
▁Morocco	-9131
▁Pedrosa	-9132
▁battled	-9133
▁extreme	-9134
▁firearm	-9135
▁intense	-9136
▁roughly	-9137
▁science	-9138
▁smaller	-9139
▁Catholic	-9140
▁Champion	-9141
▁baseball	-9142
▁administr	-9143
▁programme	-9144
▁Management	-9145
▁complaints	-9146
▁containing	-9147
▁exhibition	-9148
▁insurgents	-9149
▁overturned	-9150
▁underneath	-9151
xi	-9152
arn	-9153
bag	-9154
mel	-9155
▁57	-9156
▁67	-9157
▁OK	-9158
▁TR	-9159
cond	-9160
iden	-9161
know	-9162
▁12,	-9163
▁ATP	-9164
▁Els	-9165
▁Hon	-9166
▁Hud	-9167
▁Ice	-9168
▁Jud	-9169
▁Low	-9170
▁Nev	-9171
▁Pin	-9172
▁Yon	-9173
▁mir	-9174
entry	-9175
phoon	-9176
stein	-9177
urban	-9178
▁Butt	-9179
▁Hans	-9180
▁Hugo	-9181
▁Todd	-9182
▁bout	-9183
▁cong	-9184
▁dust	-9185
▁sect	-9186
▁symb	-9187
eeping	-9188
giving	-9189
inness	-9190
▁Bobby	-9191
▁Perez	-9192
▁Towns	-9193
▁joked	-9194
▁panda	-9195
▁sweet	-9196
▁theme	-9197
▁waves	-9198
areness	-9199
duction	-9200
profile	-9201
▁Silver	-9202
▁desire	-9203
▁endang	-9204
▁extrad	-9205
▁forget	-9206
▁goalsc	-9207
▁honour	-9208
▁meteor	-9209
▁terrif	-9210
▁Kardash	-9211
▁Mathieu	-9212
▁Olivier	-9213
▁Stephan	-9214
▁arrives	-9215
▁capable	-9216
▁crossed	-9217
▁crowned	-9218
▁forcing	-9219
▁slipped	-9220
▁Columbia	-9221
▁Division	-9222
▁Harrison	-9223
▁Wildlife	-9224
▁comedian	-9225
▁resulted	-9226
▁unharmed	-9227
▁Hurricane	-9228
▁Malaysian	-9229
▁Thousands	-9230
▁attackers	-9231
▁structure	-9232
▁Protection	-9233
▁frustrated	-9234
▁permission	-9235
▁grandmother	-9236
▁neighboring	-9237
▁Metropolitan	-9238
AP	-9239
BO	-9240
fa	-9241
:20	-9242
hou	-9243
iri	-9244
isf	-9245
mph	-9246
owa	-9247
rim	-9248
zan	-9249
▁Rw	-9250
▁WW	-9251
▁Wo	-9252
▁Wy	-9253
dict	-9254
emor	-9255
imir	-9256
offs	-9257
osis	-9258
▁50-	-9259
▁Add	-9260
▁Ips	-9261
▁Jar	-9262
▁Sav	-9263
▁Teh	-9264
▁Var	-9265
▁rej	-9266
▁tex	-9267
5,000	-9268
eracy	-9269
range	-9270
uerto	-9271
▁Dane	-9272
▁Hait	-9273
▁Hung	-9274
▁Kyle	-9275
▁Prog	-9276
▁Talk	-9277
▁Tele	-9278
▁file	-9279
▁moon	-9280
▁pipe	-9281
▁slip	-9282
idency	-9283
ompany	-9284
rupted	-9285
▁Boliv	-9286
▁Essex	-9287
▁Gabri	-9288
▁Kings	-9289
▁Sandy	-9290
▁blind	-9291
▁congr	-9292
▁const	-9293
▁mixed	-9294
▁paint	-9295
▁shell	-9296
▁spill	-9297
▁union	-9298
certain	-9299
section	-9300
through	-9301
▁Bryant	-9302
▁Foster	-9303
▁Lamela	-9304
▁Mersey	-9305
▁Puerto	-9306
▁Yemeni	-9307
▁Zlatan	-9308
▁cartel	-9309
▁conver	-9310
▁ethnic	-9311
▁larger	-9312
▁oldest	-9313
▁Bristol	-9314
▁Control	-9315
▁Ipswich	-9316
▁Lineker	-9317
▁Marcelo	-9318
▁Senegal	-9319
▁apology	-9320
▁expires	-9321
▁handgun	-9322
▁skipper	-9323
magnitude	-9324
▁Arkansas	-9325
▁Christie	-9326
▁Fellaini	-9327
▁athletes	-9328
▁exciting	-9329
▁holidays	-9330
▁operated	-9331
▁opposite	-9332
▁painting	-9333
▁relative	-9334
▁traveled	-9335
▁Microsoft	-9336
▁decisions	-9337
▁prompting	-9338
▁Villarreal	-9339
▁attracting	-9340
▁indictment	-9341
▁leadership	-9342
▁advertising	-9343
▁compensation	-9344
Ad	-9345
SW	-9346
zy	-9347
cod	-9348
hap	-9349
▁Fu	-9350
▁vo	-9351
With	-9352
astr	-9353
atti	-9354
flix	-9355
opes	-9356
orld	-9357
rain	-9358
urer	-9359
▁DNA	-9360
▁Gut	-9361
▁Ref	-9362
▁Tri	-9363
▁Zar	-9364
▁bon	-9365
▁era	-9366
▁gap	-9367
▁shr	-9368
▁tag	-9369
about	-9370
aling	-9371
erves	-9372
found	-9373
icing	-9374
ierra	-9375
shirt	-9376
stand	-9377
style	-9378
▁Baby	-9379
▁Cass	-9380
▁Golf	-9381
▁Hope	-9382
▁Mata	-9383
▁Susp	-9384
▁View	-9385
▁Wine	-9386
▁bids	-9387
▁code	-9388
▁fame	-9389
▁gren	-9390
ocated	-9391
owered	-9392
▁Ahmed	-9393
▁Eston	-9394
▁Still	-9395
▁falls	-9396
▁fence	-9397
▁finds	-9398
▁grave	-9399
▁innoc	-9400
▁juven	-9401
▁keeps	-9402
▁units	-9403
▁vital	-9404
▁Bureau	-9405
▁Crouch	-9406
▁Milner	-9407
▁acknow	-9408
▁deemed	-9409
▁handle	-9410
▁length	-9411
▁retrie	-9412
▁satell	-9413
▁stress	-9414
▁viewed	-9415
atically	-9416
▁Country	-9417
▁Diamond	-9418
▁Douglas	-9419
▁Duchess	-9420
▁Jamaica	-9421
▁balloon	-9422
▁barrier	-9423
▁congrat	-9424
▁digital	-9425
▁drawing	-9426
▁guarant	-9427
▁invited	-9428
▁offence	-9429
▁punched	-9430
▁Goodison	-9431
▁Mitchell	-9432
▁appealed	-9433
▁approval	-9434
▁chemical	-9435
▁cleaning	-9436
▁discover	-9437
▁musician	-9438
▁Detective	-9439
▁Hampshire	-9440
▁governing	-9441
▁announcing	-9442
▁background	-9443
▁colleagues	-9444
▁favourites	-9445
▁provincial	-9446
▁businessman	-9447
▁celebrities	-9448
▁helicopters	-9449
▁conversation	-9450
▁humanitarian	-9451
Be	-9452
EL	-9453
FP	-9454
TS	-9455
Un	-9456
da	-9457
aho	-9458
elu	-9459
was	-9460
▁73	-9461
free	-9462
issa	-9463
izon	-9464
laim	-9465
leep	-9466
nock	-9467
omez	-9468
orsy	-9469
otes	-9470
umbs	-9471
▁13.	-9472
▁16.	-9473
▁2.5	-9474
▁34,	-9475
▁37-	-9476
▁Ban	-9477
▁Bey	-9478
▁III	-9479
▁McK	-9480
▁Mub	-9481
▁Mug	-9482
▁anc	-9483
▁asp	-9484
▁bub	-9485
▁cru	-9486
▁mut	-9487
▁sne	-9488
▁tum	-9489
ahino	-9490
annon	-9491
orous	-9492
owner	-9493
▁1999	-9494
▁Bail	-9495
▁Boko	-9496
▁Buff	-9497
▁Dray	-9498
▁Fund	-9499
▁Gonz	-9500
▁Gran	-9501
▁Khed	-9502
▁Loic	-9503
▁Look	-9504
▁Mend	-9505
▁Monk	-9506
▁Reus	-9507
▁cake	-9508
▁thro	-9509
ifying	-9510
igible	-9511
smouth	-9512
▁Baker	-9513
▁Bangl	-9514
▁Casey	-9515
▁Corps	-9516
▁Elect	-9517
▁Globe	-9518
▁Shaun	-9519
▁aired	-9520
▁boats	-9521
▁consp	-9522
▁decor	-9523
▁empty	-9524
▁ferry	-9525
▁sympt	-9526
▁troph	-9527
ologist	-9528
umbling	-9529
▁Clever	-9530
▁Danish	-9531
▁Forces	-9532
▁Racing	-9533
▁Though	-9534
▁atmosp	-9535
▁medals	-9536
▁packed	-9537
▁scorer	-9538
▁statue	-9539
▁Baggies	-9540
▁Drayton	-9541
▁Gadhafi	-9542
▁Hussein	-9543
▁Kompany	-9544
▁Netflix	-9545
▁Striker	-9546
▁disturb	-9547
▁kicking	-9548
▁letting	-9549
▁profile	-9550
▁ratings	-9551
▁unhappy	-9552
▁Adebayor	-9553
▁Berahino	-9554
▁Resident	-9555
▁Wilfried	-9556
▁awaiting	-9557
▁civilian	-9558
▁prepares	-9559
▁theaters	-9560
▁underway	-9561
▁airlifted	-9562
▁demanding	-9563
▁southeast	-9564
▁violation	-9565
▁Assistance	-9566
▁Indonesian	-9567
▁Portsmouth	-9568
▁indication	-9569
▁paramedics	-9570
▁controversy	-9571
▁regulations	-9572
AE	-9573
600	-9574
ouf	-9575
pot	-9576
▁1-	-9577
▁78	-9578
▁AS	-9579
▁Py	-9580
awar	-9581
eler	-9582
ener	-9583
itez	-9584
izza	-9585
rich	-9586
umes	-9587
whel	-9588
▁Bed	-9589
▁Bot	-9590
▁CDC	-9591
▁Fur	-9592
▁Our	-9593
▁PSV	-9594
▁ess	-9595
ettel	-9596
pound	-9597
▁Bald	-9598
▁Bolt	-9599
▁Ings	-9600
▁Vlad	-9601
▁guys	-9602
▁pump	-9603
▁rear	-9604
ectors	-9605
▁Bruno	-9606
▁Felix	-9607
▁Garry	-9608
▁Gomez	-9609
▁Prest	-9610
▁Reina	-9611
▁brawl	-9612
▁disch	-9613
▁explo	-9614
ighting	-9615
lington	-9616
▁60,000	-9617
▁Dakota	-9618
▁Nicole	-9619
▁Target	-9620
▁Tennis	-9621
▁Twenty	-9622
▁Yonhap	-9623
▁courts	-9624
▁jersey	-9625
▁parent	-9626
expected	-9627
▁Kutcher	-9628
▁Simpson	-9629
▁Springs	-9630
▁Timothy	-9631
▁citizen	-9632
▁cruelty	-9633
▁kitchen	-9634
▁society	-9635
▁verdict	-9636
▁Charlton	-9637
▁Guinness	-9638
▁benefits	-9639
▁covering	-9640
▁episodes	-9641
▁ligament	-9642
▁missiles	-9643
▁priority	-9644
▁properly	-9645
▁reporter	-9646
▁trophies	-9647
▁unemploy	-9648
▁welcomed	-9649
government	-9650
▁Charlotte	-9651
▁Community	-9652
▁Inspector	-9653
▁detention	-9654
▁disappear	-9655
▁locations	-9656
▁offensive	-9657
▁withdrawn	-9658
▁responding	-9659
▁settlement	-9660
▁undergoing	-9661
▁unconscious	-9662
▁Firefighters	-9663
▁Investigation	-9664
EC	-9665
II	-9666
RC	-9667
hu	-9668
ls	-9669
ava	-9670
omy	-9671
▁(8	-9672
▁04	-9673
▁58	-9674
▁Ca	-9675
▁km	-9676
addy	-9677
agne	-9678
asty	-9679
held	-9680
inet	-9681
oker	-9682
onde	-9683
onte	-9684
rien	-9685
uddy	-9686
▁Cov	-9687
▁Ele	-9688
▁Jet	-9689
▁Mig	-9690
▁Sne	-9691
▁hik	-9692
▁ing	-9693
Tunes	-9694
berry	-9695
class	-9696
urrle	-9697
▁1994	-9698
▁Circ	-9699
▁Sara	-9700
▁Turn	-9701
▁cord	-9702
▁lugg	-9703
▁mini	-9704
▁rein	-9705
cation	-9706
▁2006,	-9707
▁Claud	-9708
▁Motor	-9709
▁groin	-9710
▁helps	-9711
▁holes	-9712
▁loves	-9713
▁marry	-9714
▁medic	-9715
▁novel	-9716
▁undis	-9717
▁votes	-9718
▁waste	-9719
▁write	-9720
iership	-9721
▁Arrest	-9722
▁Durham	-9723
▁Franco	-9724
▁Juarez	-9725
▁Morris	-9726
▁Potter	-9727
▁argued	-9728
▁clinic	-9729
▁duties	-9730
▁elimin	-9731
▁enthus	-9732
▁finale	-9733
▁frozen	-9734
▁tongue	-9735
ilarious	-9736
▁Alberto	-9737
▁Benitez	-9738
▁Khedira	-9739
▁Marines	-9740
▁Marquez	-9741
▁Thibaut	-9742
▁Walmart	-9743
▁analyst	-9744
▁blocked	-9745
▁engines	-9746
▁pursuit	-9747
▁Defender	-9748
▁Incident	-9749
▁airports	-9750
▁deceased	-9751
▁delivery	-9752
▁elephant	-9753
▁interior	-9754
▁starring	-9755
▁strikers	-9756
▁stronger	-9757
▁suggests	-9758
▁treating	-9759
▁whatever	-9760
▁acknowled	-9761
▁everybody	-9762
▁fireworks	-9763
▁hopefully	-9764
▁supported	-9765
▁Federation	-9766
▁Kardashian	-9767
▁Passengers	-9768
▁Richardson	-9769
▁apologized	-9770
▁communications	-9771
New	-9772
but	-9773
col	-9774
iop	-9775
ped	-9776
rep	-9777
tra	-9778
zed	-9779
▁72	-9780
▁79	-9781
▁Ul	-9782
amps	-9783
arta	-9784
door	-9785
erts	-9786
omot	-9787
oves	-9788
quin	-9789
▁120	-9790
▁Bou	-9791
▁Cos	-9792
▁Dor	-9793
▁Fry	-9794
▁Got	-9795
▁Reb	-9796
▁Ree	-9797
▁ace	-9798
▁dry	-9799
▁sin	-9800
▁swe	-9801
▁toy	-9802
aelen	-9803
atile	-9804
force	-9805
hurst	-9806
itime	-9807
obody	-9808
oline	-9809
ourse	-9810
▁Bony	-9811
▁Born	-9812
▁Cape	-9813
▁Disc	-9814
▁Fury	-9815
▁Iowa	-9816
▁Mang	-9817
▁Mumb	-9818
▁Nich	-9819
▁Nike	-9820
▁Shak	-9821
▁aval	-9822
▁lots	-9823
▁reck	-9824
▁scan	-9825
▁sche	-9826
▁tact	-9827
ambers	-9828
essing	-9829
iences	-9830
ingers	-9831
yright	-9832
▁Armed	-9833
▁Domin	-9834
▁Monte	-9835
▁Nepal	-9836
▁Stutt	-9837
▁Trust	-9838
▁airpl	-9839
▁blank	-9840
▁indec	-9841
▁rains	-9842
▁squir	-9843
▁stint	-9844
▁swift	-9845
akhstan	-9846
borough	-9847
resents	-9848
▁20,000	-9849
▁Albert	-9850
▁Amanda	-9851
▁Bosnia	-9852
▁Cavani	-9853
▁Romelu	-9854
▁Sierra	-9855
▁Summer	-9856
▁assass	-9857
▁backed	-9858
▁buying	-9859
▁factor	-9860
▁fiance	-9861
▁hiding	-9862
▁iTunes	-9863
▁passes	-9864
▁please	-9865
▁wealth	-9866
▁Customs	-9867
▁Janeiro	-9868
▁Preston	-9869
▁adopted	-9870
▁demands	-9871
▁hashtag	-9872
▁lottery	-9873
▁shooter	-9874
▁Marshall	-9875
▁Question	-9876
▁Schurrle	-9877
▁bombings	-9878
▁confirms	-9879
▁confront	-9880
▁creative	-9881
▁disorder	-9882
▁language	-9883
▁managing	-9884
▁narrowly	-9885
▁operator	-9886
▁packages	-9887
▁slightly	-9888
▁Stuttgart	-9889
▁Vermaelen	-9890
▁appealing	-9891
▁estimates	-9892
▁exclusive	-9893
▁household	-9894
▁sanctions	-9895
▁standings	-9896
▁commitment	-9897
▁confronted	-9898
▁inspection	-9899
▁investment	-9900
▁contestants	-9901
▁interesting	-9902
▁misdemeanor	-9903
▁resignation	-9904
▁increasingly	-9905
▁subsequently	-9906
kh	-9907
300	-9908
bao	-9909
lig	-9910
ras	-9911
uls	-9912
uri	-9913
▁(4	-9914
▁(5	-9915
▁74	-9916
▁9,	-9917
▁95	-9918
▁fo	-9919
arak	-9920
club	-9921
high	-9922
isle	-9923
odge	-9924
wise	-9925
▁17.	-9926
▁180	-9927
▁37,	-9928
▁ITV	-9929
▁Ort	-9930
▁Pie	-9931
▁Ted	-9932
▁Tib	-9933
▁Vis	-9934
▁aer	-9935
▁pin	-9936
iders	-9937
▁Gaga	-9938
▁Grey	-9939
▁Page	-9940
▁Pesh	-9941
▁Sold	-9942
▁Stra	-9943
▁Unit	-9944
▁ease	-9945
▁hang	-9946
▁hung	-9947
▁impl	-9948
▁lion	-9949
approp	-9950
atican	-9951
eating	-9952
oppers	-9953
▁Actor	-9954
▁Bloom	-9955
▁Civil	-9956
▁Cuban	-9957
▁Laden	-9958
▁Metro	-9959
▁alarm	-9960
▁solid	-9961
▁swoop	-9962
▁wrist	-9963
▁15,000	-9964
▁25,000	-9965
▁Dennis	-9966
▁Father	-9967
▁Finals	-9968
▁Groves	-9969
▁Mumbai	-9970
▁Reagan	-9971
▁affect	-9972
▁bacter	-9973
▁detail	-9974
▁listen	-9975
▁parach	-9976
▁suffer	-9977
▁tipped	-9978
▁Nicolas	-9979
▁Wiggins	-9980
▁beaches	-9981
▁longest	-9982
▁luggage	-9983
▁manages	-9984
▁updated	-9985
▁Griffith	-9986
▁Pentagon	-9987
▁Sullivan	-9988
▁climbing	-9989
▁controls	-9990
▁creature	-9991
▁detected	-9992
▁presents	-9993
▁provides	-9994
▁realised	-9995
▁relation	-9996
▁retiring	-9997
▁Alexandra	-9998
▁awareness	-9999
▁concluded	-10000
▁execution	-10001
▁resulting	-10002
▁Merseyside	-10003
▁apologised	-10004
▁challenged	-10005
▁represents	-10006
▁Thanksgiving	-10007
▁entertainment	-10008
awi	-10009
jad	-10010
top	-10011
▁56	-10012
▁62	-10013
▁63	-10014
ooth	-10015
rift	-10016
ugar	-10017
uzaj	-10018
▁44,	-10019
▁Doz	-10020
▁Inf	-10021
▁Roc	-10022
▁Sou	-10023
▁UAE	-10024
▁err	-10025
▁map	-10026
▁rod	-10027
acker	-10028
ieves	-10029
olski	-10030
oting	-10031
▁2018	-10032
▁Anne	-10033
▁Bord	-10034
▁Emmy	-10035
▁Wade	-10036
▁cage	-10037
▁dial	-10038
▁lane	-10039
▁navy	-10040
▁twin	-10041
emouth	-10042
itated	-10043
▁2004,	-10044
▁Biden	-10045
▁Check	-10046
▁Cyrus	-10047
▁Gibbs	-10048
▁Jacob	-10049
▁Norwe	-10050
▁Price	-10051
▁Share	-10052
▁Vidal	-10053
▁acres	-10054
▁begun	-10055
▁famed	-10056
▁habit	-10057
▁lined	-10058
▁rooms	-10059
▁Cruise	-10060
▁Fraser	-10061
▁Froome	-10062
▁Karzai	-10063
▁Nevada	-10064
▁Peters	-10065
▁Vettel	-10066
▁actors	-10067
▁blasts	-10068
▁breach	-10069
▁chased	-10070
▁clouds	-10071
▁floods	-10072
▁palace	-10073
▁profit	-10074
▁speaks	-10075
▁topped	-10076
▁waited	-10077
▁writer	-10078
▁Chester	-10079
▁Frances	-10080
▁Januzaj	-10081
▁Mubarak	-10082
▁astrona	-10083
▁balance	-10084
▁crushed	-10085
▁regions	-10086
▁viewing	-10087
▁Leonardo	-10088
▁Literacy	-10089
▁Podolski	-10090
▁adorable	-10091
▁designer	-10092
▁eruption	-10093
▁laughing	-10094
▁promoted	-10095
▁somebody	-10096
▁sponsors	-10097
▁wreckage	-10098
▁Catherine	-10099
▁Nashville	-10100
▁Stephanie	-10101
▁organized	-10102
▁territory	-10103
▁Conference	-10104
▁diplomatic	-10105
▁structures	-10106
▁Premiership	-10107
▁immigration	-10108
▁proceedings	-10109
▁prosecution	-10110
▁Commissioner	-10111
▁Organization	-10112
HO	-10113
-18	-10114
ANS	-10115
IPT	-10116
isa	-10117
▁81	-10118
▁Ot	-10119
▁Si	-10120
▁UN	-10121
aard	-10122
ario	-10123
eals	-10124
iler	-10125
otic	-10126
oupl	-10127
uchy	-10128
▁41-	-10129
▁Cow	-10130
▁Szc	-10131
▁TSA	-10132
▁Tam	-10133
▁lap	-10134
ANSCR	-10135
clair	-10136
echan	-10137
water	-10138
▁CALL	-10139
▁Cinc	-10140
▁Cord	-10141
▁Heat	-10142
▁Laud	-10143
▁ROLL	-10144
▁Stat	-10145
▁clim	-10146
▁lapt	-10147
▁phen	-10148
▁spac	-10149
vision	-10150
▁1,500	-10151
▁2014,	-10152
▁Bojan	-10153
▁Bourn	-10154
▁Front	-10155
▁Pitts	-10156
▁Twick	-10157
▁Tyler	-10158
▁Veter	-10159
▁boots	-10160
▁brace	-10161
▁click	-10162
▁loyal	-10163
▁lunch	-10164
▁opens	-10165
▁orbit	-10166
▁puppy	-10167
▁rifle	-10168
▁sheep	-10169
▁Having	-10170
▁Libyan	-10171
▁Miguel	-10172
▁Online	-10173
▁Surrey	-10174
▁Tehran	-10175
▁Warren	-10176
▁abroad	-10177
▁breast	-10178
▁colour	-10179
▁fright	-10180
▁hotels	-10181
▁parole	-10182
▁stroke	-10183
▁visits	-10184
▁volley	-10185
ANSCRIPT	-10186
▁Carrick	-10187
▁Debuchy	-10188
▁Vatican	-10189
▁battles	-10190
▁carries	-10191
▁circuit	-10192
▁factory	-10193
▁pointed	-10194
▁raising	-10195
▁sharing	-10196
▁sisters	-10197
▁Peshawar	-10198
▁Princess	-10199
▁Regional	-10200
▁Sinclair	-10201
▁Townsend	-10202
▁diplomat	-10203
▁engineer	-10204
▁marathon	-10205
▁proposal	-10206
▁showdown	-10207
▁symptoms	-10208
▁weighing	-10209
▁Fernandes	-10210
▁Peninsula	-10211
▁cancelled	-10212
▁defenders	-10213
▁enclosure	-10214
▁headlines	-10215
▁lightning	-10216
▁materials	-10217
▁recommend	-10218
▁semifinal	-10219
▁Bangladesh	-10220
▁Kazakhstan	-10221
▁TRANSCRIPT	-10222
▁Twickenham	-10223
▁frequently	-10224
▁motorcycle	-10225
▁nationwide	-10226
▁precaution	-10227
▁Bournemouth	-10228
▁altercation	-10229
▁undisclosed	-10230
▁intersection	-10231
▁northeastern	-10232
▁preparations	-10233
PA	-10234
-15	-10235
DON	-10236
Two	-10237
auk	-10238
cho	-10239
def	-10240
pit	-10241
rob	-10242
▁BA	-10243
▁Ny	-10244
▁Od	-10245
aste	-10246
atre	-10247
furt	-10248
ione	-10249
ogue	-10250
ract	-10251
rete	-10252
ucks	-10253
▁15.	-10254
▁19.	-10255
▁Ana	-10256
▁Guy	-10257
▁Kay	-10258
▁bes	-10259
▁gri	-10260
Today	-10261
amber	-10262
ancer	-10263
arted	-10264
asure	-10265
ishop	-10266
▁Brid	-10267
▁CSKA	-10268
▁Drug	-10269
▁Half	-10270
▁Jill	-10271
▁Mans	-10272
▁Ozil	-10273
▁Phel	-10274
▁Suff	-10275
▁Webb	-10276
▁aims	-10277
▁fate	-10278
▁odds	-10279
▁peck	-10280
▁scul	-10281
▁span	-10282
istant	-10283
▁Dejan	-10284
▁Grace	-10285
▁Harle	-10286
▁Swans	-10287
▁coord	-10288
▁entry	-10289
▁loose	-10290
▁multi	-10291
▁pound	-10292
▁raped	-10293
▁thick	-10294
▁towns	-10295
isation	-10296
osition	-10297
▁Celebr	-10298
▁Dozens	-10299
▁Edward	-10300
▁Massim	-10301
▁bitter	-10302
▁bounce	-10303
▁enjoys	-10304
▁helmet	-10305
▁jockey	-10306
▁lesson	-10307
▁lowest	-10308
▁mainly	-10309
▁planet	-10310
▁promin	-10311
▁unrest	-10312
▁valued	-10313
ographed	-10314
▁200,000	-10315
▁Program	-10316
▁Society	-10317
▁Willian	-10318
▁monitor	-10319
▁readers	-10320
▁runners	-10321
▁Research	-10322
▁entrance	-10323
▁horrific	-10324
▁inapprop	-10325
▁migrants	-10326
▁overwhel	-10327
▁Democrats	-10328
▁Frankfurt	-10329
▁Winehouse	-10330
▁consumers	-10331
▁creatures	-10332
▁screaming	-10333
▁sensation	-10334
▁triggered	-10335
▁witnessed	-10336
▁remarkable	-10337
▁documentary	-10338
▁electricity	-10339
▁interviewed	-10340
▁substituted	-10341
▁quarterfinals	-10342
--	-10343
.)	-10344
vo	-10345
800	-10346
enk	-10347
fra	-10348
kay	-10349
boys	-10350
fers	-10351
game	-10352
hend	-10353
ifts	-10354
ixon	-10355
king	-10356
▁39,	-10357
▁ESP	-10358
▁FAA	-10359
▁Fis	-10360
▁Lim	-10361
▁Mes	-10362
▁Rem	-10363
▁avi	-10364
▁vul	-10365
ahill	-10366
aines	-10367
anyol	-10368
ceeds	-10369
gment	-10370
guard	-10371
owski	-10372
umper	-10373
▁Bend	-10374
▁Chis	-10375
▁Cruz	-10376
▁Full	-10377
▁Hann	-10378
▁Hero	-10379
▁Jobs	-10380
▁Jove	-10381
▁Shin	-10382
▁blew	-10383
▁cute	-10384
▁isol	-10385
▁mood	-10386
▁nude	-10387
▁sank	-10388
▁scar	-10389
▁tent	-10390
▁trem	-10391
enheim	-10392
innati	-10393
iously	-10394
market	-10395
terror	-10396
tersen	-10397
▁2015.	-10398
▁Brent	-10399
▁Froch	-10400
▁adapt	-10401
▁ammun	-10402
▁bacon	-10403
▁frame	-10404
▁kills	-10405
▁opted	-10406
▁relie	-10407
▁tally	-10408
▁trash	-10409
▁types	-10410
▁usual	-10411
▁verge	-10412
▁Dynamo	-10413
▁Hassan	-10414
▁Hudson	-10415
▁Neighb	-10416
▁Search	-10417
▁deeply	-10418
▁racist	-10419
▁shirts	-10420
▁strain	-10421
▁symbol	-10422
▁trucks	-10423
▁150,000	-10424
▁Edwards	-10425
▁Friends	-10426
▁Heather	-10427
▁Network	-10428
▁backing	-10429
▁beloved	-10430
▁beneath	-10431
▁benefit	-10432
▁counsel	-10433
▁effects	-10434
▁exposed	-10435
▁outrage	-10436
▁replied	-10437
▁touched	-10438
fortunate	-10439
▁Aleksand	-10440
▁Coventry	-10441
▁Franklin	-10442
▁Pictures	-10443
▁Salvador	-10444
▁finishes	-10445
▁hostages	-10446
▁surfaced	-10447
▁tensions	-10448
▁Norwegian	-10449
▁Pietersen	-10450
▁describes	-10451
▁discussed	-10452
▁displayed	-10453
▁mountains	-10454
▁onlookers	-10455
▁positions	-10456
▁satellite	-10457
▁correspond	-10458
▁terrorists	-10459
▁Argentinian	-10460
▁Republicans	-10461
▁communities	-10462
19	-10463
35	-10464
CO	-10465
EE	-10466
hr	-10467
lu	-10468
enz	-10469
lif	-10470
ski	-10471
▁76	-10472
abis	-10473
elry	-10474
iate	-10475
lass	-10476
once	-10477
plus	-10478
thon	-10479
uits	-10480
zman	-10481
▁110	-10482
▁160	-10483
▁4-2	-10484
▁43,	-10485
▁Gor	-10486
▁Imp	-10487
▁NSW	-10488
▁Rol	-10489
▁Sey	-10490
▁cha	-10491
▁dug	-10492
▁gig	-10493
▁hin	-10494
armed	-10495
bling	-10496
cheng	-10497
isons	-10498
itage	-10499
oning	-10500
onnie	-10501
ublin	-10502
▁Book	-10503
▁Cats	-10504
▁Cott	-10505
▁Craw	-10506
▁Hard	-10507
▁Hoff	-10508
▁Hunt	-10509
▁NYPD	-10510
▁Rain	-10511
▁Sepp	-10512
▁Vice	-10513
▁deny	-10514
▁disl	-10515
▁fare	-10516
▁hill	-10517
▁iron	-10518
▁mail	-10519
▁serv	-10520
▁toss	-10521
▁vast	-10522
ashire	-10523
icient	-10524
olling	-10525
orough	-10526
screen	-10527
tering	-10528
usalem	-10529
ussion	-10530
▁Blake	-10531
▁Morsy	-10532
▁Pique	-10533
▁Sochi	-10534
▁Wasps	-10535
▁buses	-10536
▁cheer	-10537
▁conce	-10538
▁grabs	-10539
▁lanes	-10540
▁moder	-10541
▁picks	-10542
▁swing	-10543
▁tears	-10544
▁vowed	-10545
astasic	-10546
atching	-10547
conduct	-10548
olences	-10549
selling	-10550
sterdam	-10551
viously	-10552
▁Adrian	-10553
▁Alvaro	-10554
▁Arturo	-10555
▁Ashton	-10556
▁Cahill	-10557
▁Garden	-10558
▁Guatem	-10559
▁Malaga	-10560
▁Market	-10561
▁Rogers	-10562
▁approp	-10563
▁capped	-10564
▁dollar	-10565
▁drinks	-10566
▁losses	-10567
▁motion	-10568
▁podium	-10569
▁praise	-10570
▁prizes	-10571
▁prohib	-10572
▁retain	-10573
▁throat	-10574
▁volunt	-10575
▁Kenneth	-10576
▁Mangala	-10577
▁amateur	-10578
▁briefly	-10579
▁deliber	-10580
▁fatally	-10581
▁fingers	-10582
▁mystery	-10583
▁reflect	-10584
▁sailors	-10585
▁settled	-10586
▁thanked	-10587
▁uniform	-10588
▁Nastasic	-10589
▁advanced	-10590
▁executed	-10591
▁overcome	-10592
▁petition	-10593
▁stripped	-10594
▁warnings	-10595
▁yourself	-10596
▁Amsterdam	-10597
▁Jefferson	-10598
▁Jerusalem	-10599
▁pregnancy	-10600
▁typically	-10601
▁Cincinnati	-10602
▁Lancashire	-10603
▁atmosphere	-10604
▁revolution	-10605
▁semifinals	-10606
▁transition	-10607
▁unexpected	-10608
▁constitution	-10609
▁instructions	-10610
ahu	-10611
iki	-10612
omo	-10613
org	-10614
▁''	-10615
▁59	-10616
acre	-10617
arab	-10618
chel	-10619
cony	-10620
ifty	-10621
▁27.	-10622
▁50,	-10623
▁Mog	-10624
▁Ori	-10625
▁Rum	-10626
▁bic	-10627
▁haz	-10628
▁www	-10629
andom	-10630
asico	-10631
doria	-10632
forms	-10633
front	-10634
ilton	-10635
lings	-10636
plays	-10637
pless	-10638
rical	-10639
tered	-10640
ugged	-10641
zesny	-10642
▁Cand	-10643
▁Soph	-10644
▁Toul	-10645
▁Vald	-10646
▁atop	-10647
▁diet	-10648
▁exha	-10649
▁helm	-10650
▁laid	-10651
▁meat	-10652
▁soil	-10653
▁tend	-10654
▁tips	-10655
▁turb	-10656
adrado	-10657
ements	-10658
outing	-10659
▁Cesar	-10660
▁Idaho	-10661
▁Tibet	-10662
▁Write	-10663
▁Youth	-10664
▁apply	-10665
▁cheap	-10666
▁dying	-10667
▁fewer	-10668
▁glory	-10669
▁grate	-10670
▁jumps	-10671
▁liked	-10672
▁liter	-10673
▁rapid	-10674
▁shops	-10675
▁walls	-10676
ampagne	-10677
emetery	-10678
looking	-10679
▁Arteta	-10680
▁Baloch	-10681
▁Button	-10682
▁Dublin	-10683
▁Gerard	-10684
▁LeBron	-10685
▁Magath	-10686
▁Nearly	-10687
▁Record	-10688
▁Stefan	-10689
▁Stoner	-10690
▁Wander	-10691
▁Yellow	-10692
▁affair	-10693
▁convin	-10694
▁delays	-10695
▁diving	-10696
▁excess	-10697
▁fisher	-10698
▁forest	-10699
▁judges	-10700
▁plants	-10701
▁reluct	-10702
▁resemb	-10703
▁shower	-10704
Mashable	-10705
▁250,000	-10706
▁500,000	-10707
▁Because	-10708
▁Cricket	-10709
▁Helmand	-10710
▁Jovetic	-10711
▁Laurent	-10712
▁Warnock	-10713
▁aggress	-10714
▁arguing	-10715
▁balcony	-10716
▁comprom	-10717
▁drought	-10718
▁explain	-10719
▁glasses	-10720
▁gunfire	-10721
▁neither	-10722
▁storage	-10723
▁visible	-10724
intendent	-10725
velopment	-10726
▁Emmanuel	-10727
▁Phillips	-10728
▁Szczesny	-10729
▁examined	-10730
▁invasion	-10731
▁managers	-10732
▁memorial	-10733
▁reigning	-10734
▁shoppers	-10735
▁terminal	-10736
▁valuable	-10737
▁violated	-10738
▁Sampdoria	-10739
▁Wanderers	-10740
▁dedicated	-10741
▁happening	-10742
▁neighbour	-10743
▁postponed	-10744
▁smuggling	-10745
▁Detectives	-10746
▁ammunition	-10747
▁associated	-10748
▁authorized	-10749
▁recognized	-10750
▁alternative	-10751
▁understands	-10752
75	-10753
ET	-10754
ae	-10755
dr	-10756
nr	-10757
ivo	-10758
osa	-10759
uba	-10760
▁0.	-10761
Blue	-10762
omis	-10763
ovie	-10764
will	-10765
▁193	-10766
▁38-	-10767
▁45-	-10768
▁5-1	-10769
▁Cis	-10770
▁Ker	-10771
▁LON	-10772
▁Mey	-10773
▁Pun	-10774
▁Say	-10775
▁cam	-10776
▁ric	-10777
▁sac	-10778
▁sod	-10779
adish	-10780
annes	-10781
atric	-10782
ogram	-10783
olfer	-10784
ooney	-10785
ulous	-10786
▁6-3,	-10787
▁Bomb	-10788
▁Glen	-10789
▁Hind	-10790
▁Marg	-10791
▁Palm	-10792
▁Pepe	-10793
▁drag	-10794
▁flee	-10795
▁goat	-10796
▁meal	-10797
▁pile	-10798
▁zero	-10799
ihanna	-10800
umbled	-10801
▁2016.	-10802
▁Asked	-10803
▁Desch	-10804
▁Hamas	-10805
▁Hawth	-10806
▁Rocky	-10807
▁Trott	-10808
▁banks	-10809
▁cable	-10810
▁motiv	-10811
▁shake	-10812
▁sharp	-10813
▁steel	-10814
▁Bilbao	-10815
▁Diafra	-10816
▁Driver	-10817
▁Flores	-10818
▁LONDON	-10819
▁PEOPLE	-10820
▁Rights	-10821
▁Sloven	-10822
▁calend	-10823
▁canine	-10824
▁client	-10825
▁curren	-10826
▁horror	-10827
▁parade	-10828
▁pocket	-10829
▁random	-10830
▁riders	-10831
▁scheme	-10832
▁spider	-10833
▁vulner	-10834
▁Montana	-10835
▁Ricardo	-10836
▁Scholes	-10837
▁bidding	-10838
▁creator	-10839
▁inquiry	-10840
▁lengthy	-10841
▁matters	-10842
▁strange	-10843
▁succeed	-10844
▁Criminal	-10845
▁Cuadrado	-10846
▁commemor	-10847
▁congress	-10848
▁describe	-10849
▁eligible	-10850
▁landmark	-10851
▁terrible	-10852
▁activists	-10853
▁convinced	-10854
▁sentences	-10855
▁conducting	-10856
▁generation	-10857
▁harassment	-10858
▁subsequent	-10859
▁counterpart	-10860
▁firefighter	-10861
▁underground	-10862
▁unemployment	-10863
▁disappearance	-10864
14	-10865
PS	-10866
Sh	-10867
bi	-10868
eu	-10869
asa	-10870
idi	-10871
osh	-10872
vit	-10873
zer	-10874
▁("	-10875
▁Bh	-10876
▁Il	-10877
▁Kw	-10878
▁WA	-10879
acle	-10880
azon	-10881
eron	-10882
fast	-10883
idge	-10884
iley	-10885
mels	-10886
oons	-10887
oral	-10888
pies	-10889
ping	-10890
rews	-10891
thal	-10892
thur	-10893
▁Gay	-10894
▁Inn	-10895
▁Jnr	-10896
▁Whe	-10897
▁Yam	-10898
▁lod	-10899
▁mun	-10900
▁vig	-10901
These	-10902
embly	-10903
ijder	-10904
nings	-10905
space	-10906
▁Bash	-10907
▁Cups	-10908
▁Init	-10909
▁Kram	-10910
▁Liam	-10911
▁Lisa	-10912
▁Past	-10913
▁Race	-10914
▁chap	-10915
▁embr	-10916
▁flow	-10917
▁load	-10918
▁purp	-10919
▁solo	-10920
adishu	-10921
codile	-10922
ulting	-10923
▁Dream	-10924
▁Samar	-10925
▁Techn	-10926
▁boxes	-10927
▁cease	-10928
▁crazy	-10929
▁demol	-10930
▁elbow	-10931
▁fever	-10932
▁flags	-10933
▁globe	-10934
▁graph	-10935
▁micro	-10936
▁truth	-10937
▁upper	-10938
▁Barnes	-10939
▁Polish	-10940
▁Rachel	-10941
▁Strong	-10942
▁anchor	-10943
▁babies	-10944
▁brands	-10945
▁carbon	-10946
▁garage	-10947
▁golfer	-10948
▁nobody	-10949
▁orange	-10950
▁sounds	-10951
▁washed	-10952
children	-10953
ologists	-10954
ordinary	-10955
▁Actress	-10956
▁Clasico	-10957
▁Neither	-10958
▁Rihanna	-10959
▁Univers	-10960
▁applied	-10961
▁clashed	-10962
▁dealing	-10963
▁donated	-10964
▁goodbye	-10965
▁newborn	-10966
▁theater	-10967
▁Espanyol	-10968
▁Sneijder	-10969
▁airplane	-10970
▁answered	-10971
▁pipeline	-10972
▁shootout	-10973
▁Copyright	-10974
▁Mogadishu	-10975
▁childhood	-10976
▁confessed	-10977
▁dominated	-10978
▁illegally	-10979
▁improving	-10980
▁interests	-10981
▁ministers	-10982
▁contention	-10983
▁critically	-10984
▁discharged	-10985
▁politician	-10986
▁association	-10987
▁challenging	-10988
▁condolences	-10989
▁devastating	-10990
▁recognition	-10991
▁temperature	-10992
▁unfortunate	-10993
▁restrictions	-10994
▁southwestern	-10995
▁complications	-10996
SP	-10997
Bay	-10998
eye	-10999
kes	-11000
lay	-11001
two	-11002
▁(6	-11003
▁Wu	-11004
apes	-11005
aved	-11006
care	-11007
itis	-11008
just	-11009
omet	-11010
race	-11011
rice	-11012
urse	-11013
▁140	-11014
▁39-	-11015
▁GMT	-11016
▁Ins	-11017
▁Kon	-11018
▁Lah	-11019
▁Lot	-11020
▁Opp	-11021
▁cos	-11022
▁rom	-11023
▁sid	-11024
ables	-11025
arest	-11026
ensed	-11027
etown	-11028
uffed	-11029
▁Drag	-11030
▁Fant	-11031
▁Shep	-11032
▁Sout	-11033
▁Stre	-11034
▁Wals	-11035
▁apps	-11036
▁bord	-11037
▁haul	-11038
▁owns	-11039
▁tape	-11040
▁thin	-11041
▁virt	-11042
angled	-11043
inejad	-11044
ormack	-11045
▁Chair	-11046
▁Gomis	-11047
▁Heart	-11048
▁Origi	-11049
▁Prize	-11050
▁Shane	-11051
▁admir	-11052
▁beats	-11053
▁deleg	-11054
▁forth	-11055
▁guess	-11056
▁ideas	-11057
▁merch	-11058
▁rated	-11059
▁relig	-11060
▁rocks	-11061
▁veget	-11062
edition	-11063
▁Bailey	-11064
▁Consum	-11065
▁Gibson	-11066
▁Ground	-11067
▁Pierre	-11068
▁Produc	-11069
▁Soccer	-11070
▁Social	-11071
▁analys	-11072
▁barely	-11073
▁behalf	-11074
▁inmate	-11075
▁inspir	-11076
▁pickup	-11077
▁rumors	-11078
▁scouts	-11079
▁sculpt	-11080
▁sequel	-11081
▁strict	-11082
▁trauma	-11083
breaking	-11084
ographic	-11085
▁Android	-11086
▁Chisora	-11087
▁Gabriel	-11088
▁Hummels	-11089
▁Iniesta	-11090
▁Jakarta	-11091
▁Madison	-11092
▁Magpies	-11093
▁Records	-11094
▁batsman	-11095
▁burglar	-11096
▁feeding	-11097
▁forever	-11098
▁funding	-11099
▁jewelry	-11100
▁lawyers	-11101
▁revenge	-11102
▁stormed	-11103
▁Chambers	-11104
▁Federico	-11105
▁Vladimir	-11106
▁bacteria	-11107
▁combined	-11108
▁contamin	-11109
▁graduate	-11110
▁indicate	-11111
▁juvenile	-11112
▁strongly	-11113
▁thrilled	-11114
▁Elsewhere	-11115
▁collected	-11116
▁detective	-11117
▁equaliser	-11118
▁hilarious	-11119
▁memorable	-11120
▁successor	-11121
▁misconduct	-11122
▁relatively	-11123
▁Ahmadinejad	-11124
▁application	-11125
▁earthquakes	-11126
▁preparation	-11127
GS	-11128
US	-11129
VER	-11130
aza	-11131
igu	-11132
ika	-11133
jen	-11134
von	-11135
▁53	-11136
▁Ap	-11137
▁Aw	-11138
▁Ug	-11139
▁ox	-11140
ilst	-11141
itol	-11142
izer	-11143
wait	-11144
▁194	-11145
▁42-	-11146
▁47,	-11147
▁5-0	-11148
▁Asp	-11149
▁Cob	-11150
▁Dij	-11151
▁Eug	-11152
▁Hut	-11153
▁Ley	-11154
▁Obs	-11155
▁Rab	-11156
▁Run	-11157
▁Wes	-11158
▁Zid	-11159
▁fer	-11160
angel	-11161
estro	-11162
iable	-11163
iller	-11164
inder	-11165
itans	-11166
leton	-11167
ricts	-11168
▁Alli	-11169
▁Crow	-11170
▁Farm	-11171
▁Hudd	-11172
▁Maid	-11173
▁Reyn	-11174
▁cous	-11175
▁dict	-11176
▁eggs	-11177
▁emph	-11178
▁milk	-11179
▁prol	-11180
▁pund	-11181
▁stew	-11182
▁tear	-11183
▁topp	-11184
braska	-11185
▁Bened	-11186
▁Clare	-11187
▁Diouf	-11188
▁Giggs	-11189
▁Labor	-11190
▁Larry	-11191
▁Pelle	-11192
▁Prior	-11193
▁Susan	-11194
▁bills	-11195
▁comic	-11196
▁coupl	-11197
▁disag	-11198
▁fines	-11199
▁goods	-11200
▁guide	-11201
▁reads	-11202
▁scale	-11203
▁taxes	-11204
ladbach	-11205
respons	-11206
▁Living	-11207
▁Rickie	-11208
▁Trophy	-11209
▁Zidane	-11210
▁aiming	-11211
▁archit	-11212
▁blocks	-11213
▁democr	-11214
▁dumped	-11215
▁faster	-11216
▁gender	-11217
▁instit	-11218
▁jacket	-11219
▁shorts	-11220
▁termin	-11221
▁voting	-11222
▁weighs	-11223
▁Forster	-11224
▁Oakland	-11225
▁Players	-11226
▁Romania	-11227
▁Suffolk	-11228
▁adviser	-11229
▁affairs	-11230
▁climate	-11231
▁consent	-11232
▁cyclist	-11233
▁finance	-11234
▁hundred	-11235
▁licence	-11236
▁offense	-11237
▁opinion	-11238
▁premier	-11239
▁relaxed	-11240
ilitation	-11241
riculture	-11242
▁Military	-11243
▁Philippe	-11244
▁Portland	-11245
▁calendar	-11246
▁concrete	-11247
▁displays	-11248
▁meetings	-11249
▁memories	-11250
▁politics	-11251
▁receives	-11252
▁rescuers	-11253
▁severely	-11254
▁squirrel	-11255
▁Edinburgh	-11256
▁marketing	-11257
▁touchdown	-11258
▁Pittsburgh	-11259
▁discussing	-11260
▁impossible	-11261
▁impressing	-11262
▁networking	-11263
▁statements	-11264
chengladbach	-11265
▁anticipated	-11266
▁conservation	-11267
▁conservative	-11268
▁destinations	-11269
▁southeastern	-11270
:40	-11271
Not	-11272
Now	-11273
cap	-11274
ean	-11275
ito	-11276
pol	-11277
▁64	-11278
▁92	-11279
▁BM	-11280
▁BP	-11281
▁IN	-11282
Just	-11283
asco	-11284
cons	-11285
ovan	-11286
rate	-11287
vine	-11288
▁22.	-11289
▁36,	-11290
▁38,	-11291
▁54,	-11292
▁Bah	-11293
▁GOP	-11294
▁HIV	-11295
▁McN	-11296
▁Pad	-11297
▁Wer	-11298
▁adm	-11299
emark	-11300
hetic	-11301
kward	-11302
stock	-11303
verse	-11304
▁Arch	-11305
▁Benn	-11306
▁Clay	-11307
▁Corp	-11308
▁Holt	-11309
▁Kash	-11310
▁Made	-11311
▁Redd	-11312
▁Stro	-11313
▁halt	-11314
▁rich	-11315
▁rose	-11316
▁wine	-11317
ducing	-11318
ecraft	-11319
icting	-11320
record	-11321
reedom	-11322
▁2005.	-11323
▁Bronx	-11324
▁Chase	-11325
▁Chuck	-11326
▁Colin	-11327
▁Conte	-11328
▁Eddie	-11329
▁Hutch	-11330
▁Keith	-11331
▁Story	-11332
▁Train	-11333
▁acted	-11334
▁advoc	-11335
▁bones	-11336
▁clock	-11337
▁dolph	-11338
▁jeans	-11339
▁noise	-11340
▁polar	-11341
▁tired	-11342
▁uncom	-11343
quarium	-11344
▁40,000	-11345
▁Exeter	-11346
▁Irvine	-11347
▁Kuwait	-11348
▁Lakers	-11349
▁Moreno	-11350
▁Series	-11351
▁crowds	-11352
▁divers	-11353
▁editor	-11354
▁hailed	-11355
▁killer	-11356
▁kitten	-11357
▁manner	-11358
▁regret	-11359
▁salary	-11360
▁update	-11361
▁vision	-11362
▁wheels	-11363
▁Morning	-11364
▁Palermo	-11365
▁ancient	-11366
▁booking	-11367
▁consult	-11368
▁defeats	-11369
▁letters	-11370
▁reaches	-11371
▁rolling	-11372
▁Delaware	-11373
▁Download	-11374
▁Smalling	-11375
▁animated	-11376
▁checking	-11377
▁collabor	-11378
▁defended	-11379
▁existing	-11380
▁imprison	-11381
▁peaceful	-11382
▁refusing	-11383
▁restored	-11384
▁survival	-11385
▁thorough	-11386
▁troubled	-11387
▁Residents	-11388
▁stretcher	-11389
▁uncertain	-11390
▁Aleksandar	-11391
▁attendance	-11392
▁conspiracy	-11393
▁impression	-11394
▁youngsters	-11395
▁Information	-11396
▁Northampton	-11397
▁complaining	-11398
▁inappropriate	-11399
AC	-11400
has	-11401
orf	-11402
▁61	-11403
▁Wa	-11404
adan	-11405
enne	-11406
four	-11407
goal	-11408
iani	-11409
ieri	-11410
lock	-11411
ooch	-11412
ovak	-11413
qiri	-11414
raph	-11415
step	-11416
stra	-11417
▁350	-11418
▁41,	-11419
▁6-0	-11420
▁7-5	-11421
▁Ant	-11422
▁Edu	-11423
▁Had	-11424
▁Ler	-11425
▁Mol	-11426
▁RIA	-11427
▁Rus	-11428
▁Sig	-11429
▁jog	-11430
▁lib	-11431
▁tub	-11432
▁yen	-11433
arabt	-11434
borne	-11435
lects	-11436
ocide	-11437
owder	-11438
story	-11439
unken	-11440
▁1997	-11441
▁Chev	-11442
▁Conc	-11443
▁Gian	-11444
▁Jurg	-11445
▁Luck	-11446
▁Move	-11447
▁Raul	-11448
▁Siro	-11449
▁arra	-11450
▁tech	-11451
▁tons	-11452
alking	-11453
bridge	-11454
onnell	-11455
▁Arjen	-11456
▁Bayer	-11457
▁Death	-11458
▁Leone	-11459
▁Movie	-11460
▁Sound	-11461
▁camps	-11462
▁depth	-11463
▁distr	-11464
▁jokes	-11465
▁kicks	-11466
▁marsh	-11467
▁meets	-11468
▁pizza	-11469
▁psych	-11470
▁Batman	-11471
▁Muller	-11472
▁Orange	-11473
▁Richie	-11474
▁Rother	-11475
▁Vienna	-11476
▁absent	-11477
▁adrift	-11478
▁albums	-11479
▁easily	-11480
▁gotten	-11481
▁lethal	-11482
▁mechan	-11483
▁satisf	-11484
▁wishes	-11485
election	-11486
minister	-11487
▁Affairs	-11488
▁Arabian	-11489
▁Clooney	-11490
▁Taarabt	-11491
▁bombers	-11492
▁critics	-11493
▁deficit	-11494
▁element	-11495
▁flowers	-11496
▁outcome	-11497
▁plunged	-11498
▁Broadway	-11499
▁Independ	-11500
▁Nebraska	-11501
▁activist	-11502
▁bleeding	-11503
▁cannabis	-11504
▁commonly	-11505
▁endanger	-11506
▁formally	-11507
▁offences	-11508
▁operates	-11509
▁retained	-11510
▁solution	-11511
▁Valentine	-11512
▁airstrike	-11513
▁avalanche	-11514
▁container	-11515
▁displaced	-11516
▁launching	-11517
▁nightclub	-11518
▁notorious	-11519
▁predicted	-11520
▁prevented	-11521
▁producers	-11522
▁qualified	-11523
▁Prevention	-11524
▁approaches	-11525
▁checkpoint	-11526
▁depression	-11527
▁federation	-11528
▁physically	-11529
▁resolution	-11530
▁underwater	-11531
▁violations	-11532
▁Enforcement	-11533
▁legislation	-11534
▁temporarily	-11535
▁participants	-11536
▁photographed	-11537
▁representing	-11538
90	-11539
oh	-11540
py	-11541
Pro	-11542
TON	-11543
dog	-11544
dri	-11545
hat	-11546
lav	-11547
lus	-11548
usa	-11549
vas	-11550
▁Da	-11551
▁TM	-11552
-200	-11553
abil	-11554
hole	-11555
iter	-11556
mons	-11557
osti	-11558
them	-11559
ules	-11560
zema	-11561
▁1.2	-11562
▁42,	-11563
▁49,	-11564
▁Bao	-11565
▁Cou	-11566
▁Kan	-11567
▁Lan	-11568
▁McE	-11569
▁Rav	-11570
▁Son	-11571
▁gor	-11572
▁sib	-11573
▁wet	-11574
abled	-11575
aders	-11576
anges	-11577
issan	-11578
nival	-11579
uries	-11580
▁Alej	-11581
▁Hand	-11582
▁Kurd	-11583
▁Plan	-11584
▁Teen	-11585
▁USGS	-11586
▁Xavi	-11587
▁cops	-11588
▁disg	-11589
▁dump	-11590
▁maps	-11591
▁pand	-11592
▁rebu	-11593
▁sadd	-11594
▁shed	-11595
▁sole	-11596
▁soul	-11597
▁vacc	-11598
▁wage	-11599
arenka	-11600
icipal	-11601
itable	-11602
itesse	-11603
ousand	-11604
utions	-11605
▁2005,	-11606
▁4,000	-11607
▁Berry	-11608
▁Fleet	-11609
▁Gover	-11610
▁Karen	-11611
▁Karim	-11612
▁Logan	-11613
▁Lohan	-11614
▁Naugh	-11615
▁Naval	-11616
▁Plane	-11617
▁Scene	-11618
▁Upper	-11619
▁Which	-11620
▁fixed	-11621
▁forms	-11622
▁heels	-11623
▁pilgr	-11624
▁sheet	-11625
▁worry	-11626
▁80,000	-11627
▁Amazon	-11628
▁Around	-11629
▁Briton	-11630
▁Ethiop	-11631
▁Holmes	-11632
▁Jurgen	-11633
▁Mugabe	-11634
▁Palmer	-11635
▁Warsaw	-11636
▁Werder	-11637
▁assail	-11638
▁brutal	-11639
▁forens	-11640
▁locals	-11641
▁papers	-11642
▁Barrett	-11643
▁Cabinet	-11644
▁Capitol	-11645
▁Colback	-11646
▁Vitesse	-11647
▁costume	-11648
▁drunken	-11649
▁honored	-11650
▁imposed	-11651
▁interim	-11652
▁pecking	-11653
▁pledged	-11654
▁thieves	-11655
▁tracked	-11656
▁Azarenka	-11657
▁Lebanese	-11658
▁Mohammad	-11659
▁anywhere	-11660
▁category	-11661
▁distress	-11662
▁genocide	-11663
▁involves	-11664
▁knockout	-11665
▁offenses	-11666
▁passport	-11667
▁realized	-11668
▁referees	-11669
▁requires	-11670
▁Armstrong	-11671
▁Brentford	-11672
▁Cleverley	-11673
▁Financial	-11674
▁Hawthorns	-11675
▁adventure	-11676
▁autograph	-11677
▁cigarette	-11678
▁colleague	-11679
▁enquiries	-11680
▁freestyle	-11681
▁insurance	-11682
▁Buckingham	-11683
▁categories	-11684
▁smartphone	-11685
▁suggesting	-11686
▁surprising	-11687
▁accusations	-11688
▁expectations	-11689
▁disappointment	-11690
BF	-11691
GH	-11692
MS	-11693
Tr	-11694
One	-11695
Rep	-11696
eke	-11697
lon	-11698
sur	-11699
▁71	-11700
▁la	-11701
ecca	-11702
icki	-11703
iege	-11704
loan	-11705
made	-11706
wear	-11707
▁Cay	-11708
▁Equ	-11709
▁Mak	-11710
▁Maz	-11711
▁Mut	-11712
▁Woj	-11713
▁Yet	-11714
▁enh	-11715
▁mum	-11716
eling	-11717
ewalk	-11718
okbel	-11719
piece	-11720
quins	-11721
riers	-11722
speed	-11723
uffle	-11724
vised	-11725
ycles	-11726
▁Arts	-11727
▁Doug	-11728
▁Iker	-11729
▁Mali	-11730
▁Mehs	-11731
▁Nort	-11732
▁barg	-11733
▁bite	-11734
▁dive	-11735
▁gent	-11736
▁grey	-11737
▁lets	-11738
▁rage	-11739
▁ribs	-11740
▁wrap	-11741
active	-11742
cester	-11743
ianski	-11744
thouse	-11745
usting	-11746
▁Britt	-11747
▁Falls	-11748
▁Hamid	-11749
▁Maine	-11750
▁Marin	-11751
▁Medel	-11752
▁Michu	-11753
▁Neuer	-11754
▁Ortiz	-11755
▁Petra	-11756
▁Slade	-11757
▁Teleg	-11758
▁stone	-11759
▁uncle	-11760
▁uncon	-11761
casters	-11762
rington	-11763
▁Anchor	-11764
▁Johnny	-11765
▁Knicks	-11766
▁Nissan	-11767
▁Pistor	-11768
▁Sheikh	-11769
▁Somers	-11770
▁bitten	-11771
▁checks	-11772
▁compar	-11773
▁copies	-11774
▁crying	-11775
▁expand	-11776
▁hammer	-11777
▁hazard	-11778
▁hearts	-11779
▁loaned	-11780
▁rating	-11781
▁slowly	-11782
▁Benteke	-11783
▁Benzema	-11784
▁Cowboys	-11785
▁Hillary	-11786
▁JetBlue	-11787
▁Madonna	-11788
▁Shaqiri	-11789
▁Stanley	-11790
▁Verizon	-11791
▁Vermont	-11792
▁Warning	-11793
▁advance	-11794
▁endured	-11795
▁samples	-11796
▁shouldn	-11797
▁Columbus	-11798
▁Cornwall	-11799
▁Matthews	-11800
▁Rescuers	-11801
▁Westwood	-11802
▁agreeing	-11803
▁findings	-11804
▁hometown	-11805
▁infamous	-11806
▁infected	-11807
▁motorist	-11808
▁reopened	-11809
▁Gallagher	-11810
▁Pistorius	-11811
▁anonymous	-11812
▁apologize	-11813
▁contracts	-11814
▁converted	-11815
▁defeating	-11816
▁inaugural	-11817
▁inspector	-11818
▁peacekeep	-11819
▁prominent	-11820
▁relegated	-11821
▁trademark	-11822
▁victories	-11823
▁industrial	-11824
▁maintained	-11825
▁neighbours	-11826
▁organizers	-11827
▁responders	-11828
▁sentencing	-11829
▁vulnerable	-11830
▁Balochistan	-11831
▁Environment	-11832
▁approaching	-11833
▁complicated	-11834
▁destruction	-11835
▁photography	-11836
▁breakthrough	-11837
▁contaminated	-11838
-5	-11839
88	-11840
95	-11841
pa	-11842
▁)	-11843
His	-11844
amy	-11845
avo	-11846
eri	-11847
ext	-11848
hop	-11849
iti	-11850
oub	-11851
sit	-11852
ulk	-11853
uns	-11854
xic	-11855
▁(7	-11856
▁Dh	-11857
achi	-11858
aric	-11859
arov	-11860
arro	-11861
auer	-11862
etsk	-11863
etti	-11864
face	-11865
haul	-11866
moud	-11867
osur	-11868
rene	-11869
tero	-11870
unal	-11871
▁101	-11872
▁130	-11873
▁450	-11874
▁Abr	-11875
▁Bud	-11876
▁Cad	-11877
▁Cru	-11878
▁Hes	-11879
▁Set	-11880
▁jun	-11881
▁rig	-11882
Andre	-11883
Thank	-11884
agued	-11885
cross	-11886
eston	-11887
grade	-11888
ichel	-11889
impse	-11890
riots	-11891
ships	-11892
▁Amir	-11893
▁Area	-11894
▁Brem	-11895
▁Buen	-11896
▁Caul	-11897
▁Jake	-11898
▁Joan	-11899
▁Rail	-11900
▁Salt	-11901
▁Viol	-11902
▁WASH	-11903
▁acid	-11904
▁dock	-11905
▁feud	-11906
▁holy	-11907
▁liqu	-11908
▁sore	-11909
INGTON	-11910
anting	-11911
graded	-11912
igning	-11913
▁Baham	-11914
▁Bards	-11915
▁Chico	-11916
▁Filip	-11917
▁Guang	-11918
▁Nobel	-11919
▁Thorn	-11920
▁chaos	-11921
▁escal	-11922
▁facts	-11923
▁immin	-11924
▁loses	-11925
▁overt	-11926
▁prest	-11927
▁pulls	-11928
▁radar	-11929
▁sends	-11930
iminals	-11931
running	-11932
uration	-11933
▁Airbus	-11934
▁Bacary	-11935
▁Dawson	-11936
▁Deport	-11937
▁Getafe	-11938
▁Jewish	-11939
▁Ospina	-11940
▁Walter	-11941
▁asleep	-11942
▁carpet	-11943
▁golden	-11944
▁honest	-11945
▁kidney	-11946
▁laptop	-11947
▁ripped	-11948
▁rubber	-11949
▁streak	-11950
▁titled	-11951
▁vandal	-11952
hetamine	-11953
▁Andrews	-11954
▁Burgess	-11955
▁Correct	-11956
▁Estonia	-11957
▁Fantasy	-11958
▁Morales	-11959
▁Wallace	-11960
▁cycling	-11961
▁damages	-11962
▁enthusi	-11963
▁fortune	-11964
▁glimpse	-11965
▁greeted	-11966
▁hostage	-11967
▁housing	-11968
▁lifting	-11969
▁minimum	-11970
▁setback	-11971
terweight	-11972
▁Bardsley	-11973
▁Hollande	-11974
▁Kingston	-11975
▁Markovic	-11976
▁Marshals	-11977
▁Millwall	-11978
▁Mountain	-11979
▁Slovenia	-11980
▁Stephens	-11981
▁assigned	-11982
▁deciding	-11983
▁minority	-11984
▁negative	-11985
▁religion	-11986
▁saddened	-11987
▁securing	-11988
▁versions	-11989
▁wounding	-11990
▁Alejandro	-11991
▁Executive	-11992
▁Fabianski	-11993
▁districts	-11994
▁homeowner	-11995
▁sectarian	-11996
▁separated	-11997
▁Revolution	-11998
▁WASHINGTON	-11999
▁accidental	-12000
▁criticized	-12001
▁designated	-12002
▁instrument	-12003
▁medication	-12004
▁spacecraft	-12005
▁ultimately	-12006
▁volunteers	-12007
▁intoxicated	-12008
▁researchers	-12009
▁internationals	-12010
▁investigations	-12011
▁transportation	-12012
):	-12013
Oh	-12014
Let	-12015
afa	-12016
agu	-12017
cal	-12018
hal	-12019
hit	-12020
mod	-12021
ori	-12022
yes	-12023
▁Ll	-12024
▁Om	-12025
West	-12026
anye	-12027
arks	-12028
arna	-12029
arra	-12030
atra	-12031
inge	-12032
isha	-12033
onom	-12034
wein	-12035
wing	-12036
with	-12037
▁60-	-12038
▁AFC	-12039
▁Aur	-12040
▁BMW	-12041
▁Bin	-12042
▁Dad	-12043
▁Din	-12044
▁Ern	-12045
▁Hem	-12046
▁Nat	-12047
▁TMZ	-12048
▁Vik	-12049
▁Viv	-12050
▁Yah	-12051
▁Yes	-12052
▁mol	-12053
▁nep	-12054
▁unw	-12055
ategy	-12056
inces	-12057
jured	-12058
outed	-12059
ucted	-12060
visor	-12061
▁Adri	-12062
▁Auck	-12063
▁Budd	-12064
▁Cell	-12065
▁Dijk	-12066
▁ESPN	-12067
▁Finn	-12068
▁Nass	-12069
▁Prim	-12070
▁Rice	-12071
▁Tech	-12072
▁Theo	-12073
▁Zaha	-12074
▁cert	-12075
▁deck	-12076
▁grid	-12077
▁nerv	-12078
▁radi	-12079
▁toys	-12080
▁tune	-12081
arnaev	-12082
arrell	-12083
inians	-12084
lusion	-12085
phones	-12086
ronics	-12087
▁Dyche	-12088
▁Event	-12089
▁Gates	-12090
▁Marie	-12091
▁Nancy	-12092
▁Never	-12093
▁Ricky	-12094
▁Schne	-12095
▁cockt	-12096
▁fleet	-12097
▁naval	-12098
▁plate	-12099
▁pride	-12100
▁spare	-12101
▁stake	-12102
▁toler	-12103
▁troop	-12104
itement	-12105
outinho	-12106
powered	-12107
ription	-12108
weinste	-12109
▁Andres	-12110
▁Bremen	-12111
▁Connor	-12112
▁Harvey	-12113
▁Jerome	-12114
▁Scient	-12115
▁Slovak	-12116
▁Spokes	-12117
▁Thiago	-12118
▁Venice	-12119
▁Yamaha	-12120
▁abused	-12121
▁arrang	-12122
▁belief	-12123
▁donate	-12124
▁heroin	-12125
▁holder	-12126
▁leaked	-12127
▁limits	-12128
▁nephew	-12129
▁occurs	-12130
▁outing	-12131
▁rejoin	-12132
▁tanker	-12133
▁underc	-12134
▁unless	-12135
▁Alvarez	-12136
▁Current	-12137
▁Donetsk	-12138
▁Experts	-12139
▁Kolarov	-12140
▁Levante	-12141
▁Negredo	-12142
▁Ramadan	-12143
▁Workers	-12144
▁awkward	-12145
▁closest	-12146
▁couples	-12147
▁gesture	-12148
▁imagine	-12149
▁legally	-12150
▁offices	-12151
▁onboard	-12152
▁painted	-12153
▁payment	-12154
▁ranking	-12155
▁remarks	-12156
▁suffers	-12157
▁takeoff	-12158
▁Auckland	-12159
▁Chairman	-12160
▁Santiago	-12161
▁Tsarnaev	-12162
▁airspace	-12163
▁catching	-12164
▁confused	-12165
▁floating	-12166
▁frequent	-12167
▁headline	-12168
▁punching	-12169
▁teachers	-12170
▁volcanic	-12171
▁Wilkinson	-12172
▁commented	-12173
▁crocodile	-12174
▁exercises	-12175
▁extensive	-12176
▁finalists	-12177
▁implement	-12178
▁provinces	-12179
▁recognize	-12180
▁Schweinste	-12181
▁allegation	-12182
▁encouraged	-12183
▁evaluation	-12184
▁goalscorer	-12185
▁presidency	-12186
▁appropriate	-12187
▁grandfather	-12188
▁personality	-12189
▁tournaments	-12190
Pe	-12191
abs	-12192
bie	-12193
jah	-12194
kil	-12195
lex	-12196
put	-12197
▁83	-12198
▁88	-12199
▁IR	-12200
▁Ud	-12201
Good	-12202
igen	-12203
math	-12204
odor	-12205
oval	-12206
rank	-12207
tner	-12208
uous	-12209
▁44-	-12210
▁45,	-12211
▁Aub	-12212
▁CPR	-12213
▁Dim	-12214
▁Hob	-12215
▁Joy	-12216
▁Lon	-12217
▁Sem	-12218
▁Way	-12219
▁Zen	-12220
agull	-12221
inked	-12222
itsch	-12223
level	-12224
olded	-12225
olved	-12226
valho	-12227
▁1996	-12228
▁2020	-12229
▁Aden	-12230
▁Berg	-12231
▁Chan	-12232
▁EVER	-12233
▁Must	-12234
▁Resp	-12235
▁Slam	-12236
▁Vonn	-12237
▁Wang	-12238
▁bone	-12239
▁chef	-12240
▁coat	-12241
▁desk	-12242
▁mamm	-12243
▁noon	-12244
▁symp	-12245
▁visa	-12246
▁wand	-12247
▁wond	-12248
▁worn	-12249
called	-12250
omenon	-12251
ortion	-12252
writer	-12253
▁Agger	-12254
▁Aires	-12255
▁Coach	-12256
▁Corre	-12257
▁Goals	-12258
▁Heath	-12259
▁Lynch	-12260
▁Santi	-12261
▁Totti	-12262
▁dealt	-12263
▁harsh	-12264
▁incor	-12265
▁obser	-12266
▁probe	-12267
▁raced	-12268
▁scare	-12269
▁smash	-12270
▁sting	-12271
▁swall	-12272
▁vigil	-12273
▁wings	-12274
lestone	-12275
▁Buenos	-12276
▁Burton	-12277
▁Hector	-12278
▁Mendes	-12279
▁Others	-12280
▁Parish	-12281
▁Reddit	-12282
▁Stevan	-12283
▁aerial	-12284
▁corpor	-12285
▁desert	-12286
▁engulf	-12287
▁halted	-12288
▁humans	-12289
▁inform	-12290
▁mutual	-12291
▁rarely	-12292
▁rubble	-12293
▁transl	-12294
▁writes	-12295
ersfield	-12296
▁300,000	-12297
▁Bolivia	-12298
▁Brandon	-12299
▁Britons	-12300
▁Griffin	-12301
▁Karachi	-12302
▁casting	-12303
▁classes	-12304
▁coached	-12305
▁neglect	-12306
▁railway	-12307
▁starlet	-12308
▁wanting	-12309
uccessful	-12310
▁Bendtner	-12311
▁Carvalho	-12312
▁Croatian	-12313
▁Disaster	-12314
▁Marathon	-12315
▁Naughton	-12316
▁Official	-12317
▁Richards	-12318
▁attribut	-12319
▁belonged	-12320
▁capsized	-12321
▁cruciate	-12322
▁dropping	-12323
▁entirely	-12324
▁escorted	-12325
▁freezing	-12326
▁gasoline	-12327
▁launches	-12328
▁mistakes	-12329
▁punished	-12330
▁reckless	-12331
▁replaces	-12332
▁strategy	-12333
▁suitcase	-12334
▁Anchorage	-12335
▁Deportivo	-12336
▁McCormack	-12337
▁Uruguayan	-12338
▁effective	-12339
▁otherwise	-12340
▁preferred	-12341
▁revealing	-12342
▁telephone	-12343
▁touchline	-12344
▁Paramedics	-12345
▁importance	-12346
▁popularity	-12347
▁examination	-12348
▁observation	-12349
▁permanently	-12350
▁contribution	-12351
▁prostitution	-12352
▁extraordinary	-12353
▁Schweinsteiger	-12354
24	-12355
81	-12356
Sc	-12357
15,	-12358
arb	-12359
bal	-12360
fur	-12361
iya	-12362
obe	-12363
ozy	-12364
viv	-12365
▁69	-12366
▁96	-12367
▁AP	-12368
▁BT	-12369
▁DU	-12370
▁MO	-12371
▁Oy	-12372
▁Ye	-12373
▁Ze	-12374
▁rh	-12375
amic	-12376
asha	-12377
azed	-12378
eaux	-12379
eded	-12380
idas	-12381
imex	-12382
iper	-12383
leck	-12384
lynn	-12385
otta	-12386
oupe	-12387
ucci	-12388
wart	-12389
yang	-12390
▁18.	-12391
▁43-	-12392
▁7.5	-12393
▁Faz	-12394
▁Gem	-12395
▁HBO	-12396
▁Ole	-12397
▁Riv	-12398
▁Sed	-12399
▁Tab	-12400
▁Tat	-12401
▁Zab	-12402
▁hob	-12403
▁lip	-12404
▁mel	-12405
▁sew	-12406
aguay	-12407
anean	-12408
armac	-12409
ciech	-12410
claim	-12411
iffer	-12412
ighed	-12413
itary	-12414
itled	-12415
jiang	-12416
orses	-12417
ouane	-12418
ource	-12419
ucked	-12420
▁1991	-12421
▁1995	-12422
▁Biel	-12423
▁Crit	-12424
▁Dise	-12425
▁Gand	-12426
▁Hang	-12427
▁Hook	-12428
▁Katy	-12429
▁Lars	-12430
▁Mane	-12431
▁Moss	-12432
▁Sark	-12433
▁Tell	-12434
▁Vert	-12435
▁beef	-12436
▁dirt	-12437
▁elev	-12438
▁lava	-12439
▁obsc	-12440
▁sung	-12441
icides	-12442
tenham	-12443
▁6,000	-12444
▁Antar	-12445
▁Aviva	-12446
▁Bruss	-12447
▁Devon	-12448
▁Farah	-12449
▁Parma	-12450
▁Perth	-12451
▁aside	-12452
▁cents	-12453
▁craft	-12454
▁cycle	-12455
▁edged	-12456
▁gross	-12457
▁lorry	-12458
▁march	-12459
▁nurse	-12460
▁penis	-12461
▁persu	-12462
▁phase	-12463
▁reass	-12464
▁scram	-12465
ropical	-12466
▁Floren	-12467
▁Guzman	-12468
▁Indies	-12469
▁Junior	-12470
▁Newark	-12471
▁Shades	-12472
▁Stakes	-12473
▁Wonder	-12474
▁bloody	-12475
▁casino	-12476
▁charts	-12477
▁consol	-12478
▁dreams	-12479
▁guided	-12480
▁method	-12481
▁portra	-12482
▁priest	-12483
▁pundit	-12484
▁routes	-12485
▁sights	-12486
▁voters	-12487
▁wooden	-12488
daughter	-12489
▁Bentley	-12490
▁Charged	-12491
▁Finland	-12492
▁Freedom	-12493
▁Jermain	-12494
▁Notimex	-12495
▁Raymond	-12496
▁Tripoli	-12497
▁cartoon	-12498
▁decline	-12499
▁emotion	-12500
▁fleeing	-12501
▁handful	-12502
▁markets	-12503
▁opposed	-12504
▁pattern	-12505
▁promise	-12506
▁realize	-12507
▁resumed	-12508
▁reviews	-12509
▁transpl	-12510
president	-12511
▁Austrian	-12512
▁Standard	-12513
▁Wojciech	-12514
▁attitude	-12515
▁aviation	-12516
▁basement	-12517
▁conceded	-12518
▁driveway	-12519
▁expanded	-12520
▁fixtures	-12521
▁sessions	-12522
▁stranger	-12523
▁supports	-12524
▁tracking	-12525
▁tweeting	-12526
▁veterans	-12527
▁villages	-12528
▁Schneider	-12529
▁Southwest	-12530
▁Valentino	-12531
▁announces	-12532
▁architect	-12533
▁assisting	-12534
▁conscious	-12535
▁generally	-12536
▁principal	-12537
▁promising	-12538
▁resources	-12539
▁spotlight	-12540
▁Parliament	-12541
▁attraction	-12542
▁defendants	-12543
▁disorderly	-12544
▁electrical	-12545
▁foundation	-12546
▁phenomenon	-12547
▁procedures	-12548
▁wheelchair	-12549
▁broadcaster	-12550
▁combination	-12551
▁frustration	-12552
▁Huddersfield	-12553
▁Indianapolis	-12554
▁acknowledged	-12555
▁embarrassing	-12556
▁demonstrators	-12557
▁qualification	-12558
-3	-12559
13	-12560
65	-12561
NT	-12562
qq	-12563
Con	-12564
dis	-12565
iah	-12566
ido	-12567
isi	-12568
oye	-12569
ssa	-12570
ucr	-12571
vre	-12572
▁DC	-12573
▁DM	-12574
▁DV	-12575
▁NR	-12576
▁ge	-12577
▁id	-12578
Some	-12579
bike	-12580
essa	-12581
etic	-12582
ikes	-12583
inka	-12584
irez	-12585
rome	-12586
unga	-12587
unge	-12588
▁23.	-12589
▁46-	-12590
▁Agn	-12591
▁Ans	-12592
▁Boo	-12593
▁Cat	-12594
▁Dew	-12595
▁Eid	-12596
▁Fed	-12597
▁Lux	-12598
▁Zur	-12599
▁hyd	-12600
acent	-12601
antha	-12602
doing	-12603
eeing	-12604
ewhat	-12605
fight	-12606
great	-12607
iterr	-12608
izard	-12609
loris	-12610
mouth	-12611
nesty	-12612
track	-12613
▁1993	-12614
▁Anti	-12615
▁Arfa	-12616
▁Germ	-12617
▁Haye	-12618
▁Holy	-12619
▁Koch	-12620
▁Lund	-12621
▁Mats	-12622
▁Mort	-12623
▁Nice	-12624
▁Omar	-12625
▁Self	-12626
▁Trib	-12627
▁Xabi	-12628
▁Zuma	-12629
▁acad	-12630
▁aide	-12631
▁cook	-12632
▁frag	-12633
▁fulf	-12634
▁leap	-12635
▁paws	-12636
▁tier	-12637
▁trim	-12638
▁unin	-12639
alford	-12640
onghen	-12641
ookeep	-12642
shaped	-12643
uctive	-12644
▁2001,	-12645
▁Along	-12646
▁EVERY	-12647
▁Foxes	-12648
▁Glenn	-12649
▁Haiti	-12650
▁Hindu	-12651
▁Lance	-12652
▁Marca	-12653
▁Navas	-12654
▁Randy	-12655
▁Ready	-12656
▁Tower	-12657
▁Warri	-12658
▁arena	-12659
▁bride	-12660
▁clerk	-12661
▁crawl	-12662
▁elite	-12663
▁goall	-12664
▁innov	-12665
▁intim	-12666
▁paces	-12667
▁pages	-12668
▁skill	-12669
ampered	-12670
▁Arthur	-12671
▁Brooks	-12672
▁Darfur	-12673
▁Franck	-12674
▁Lloris	-12675
▁Lukasz	-12676
▁Phelps	-12677
▁Prison	-12678
▁Robson	-12679
▁Rwanda	-12680
▁Shield	-12681
▁cousin	-12682
▁expans	-12683
▁legacy	-12684
▁misses	-12685
▁ousted	-12686
▁powder	-12687
▁quotes	-12688
▁scared	-12689
▁sitcom	-12690
▁slated	-12691
▁Gardens	-12692
▁Gardner	-12693
▁Kashmir	-12694
▁Ramirez	-12695
▁Walters	-12696
▁Without	-12697
▁blanket	-12698
▁centers	-12699
▁chicken	-12700
▁cockpit	-12701
▁credits	-12702
▁dolphin	-12703
▁drowned	-12704
▁jackpot	-12705
▁leagues	-12706
▁murders	-12707
▁objects	-12708
▁reacted	-12709
▁resolve	-12710
▁stopper	-12711
▁surpass	-12712
▁weighed	-12713
▁Bordeaux	-12714
▁Brussels	-12715
▁Coutinho	-12716
▁Johannes	-12717
▁Mediterr	-12718
▁Millions	-12719
▁Paraguay	-12720
▁airlines	-12721
▁credited	-12722
▁damaging	-12723
▁forensic	-12724
▁lifetime	-12725
▁machines	-12726
▁medicine	-12727
▁policies	-12728
▁referred	-12729
▁subjects	-12730
▁suburban	-12731
▁backwards	-12732
▁computers	-12733
▁crackdown	-12734
▁criminals	-12735
▁exchanged	-12736
▁insurgent	-12737
▁landslide	-12738
▁motorists	-12739
▁perfectly	-12740
▁promoting	-12741
▁reluctant	-12742
▁replacing	-12743
▁Cheltenham	-12744
▁Vertonghen	-12745
▁contestant	-12746
▁incredibly	-12747
▁terrifying	-12748
▁experiences	-12749
▁extradition	-12750
▁recommended	-12751
▁commissioner	-12752
▁Mediterranean	-12753
▁consideration	-12754
▁unfortunately	-12755
.1	-12756
29	-12757
NL	-12758
gi	-12759
-19	-12760
Car	-12761
erb	-12762
kel	-12763
oba	-12764
oir	-12765
oly	-12766
onc	-12767
pse	-12768
reb	-12769
vet	-12770
▁97	-12771
▁Ci	-12772
▁Ep	-12773
alez	-12774
azir	-12775
fish	-12776
heel	-12777
icky	-12778
indh	-12779
inos	-12780
irit	-12781
leen	-12782
mare	-12783
name	-12784
otal	-12785
quer	-12786
raid	-12787
tone	-12788
uber	-12789
unar	-12790
▁24.	-12791
▁30.	-12792
▁AFP	-12793
▁Ame	-12794
▁Aud	-12795
▁Dol	-12796
▁Lav	-12797
▁Rak	-12798
▁Zhe	-12799
▁cry	-12800
Happy	-12801
acket	-12802
adows	-12803
ancou	-12804
encer	-12805
ennes	-12806
iktas	-12807
iscal	-12808
ommod	-12809
ucker	-12810
▁Film	-12811
▁Gray	-12812
▁Juve	-12813
▁McCl	-12814
▁Reed	-12815
▁Rest	-12816
▁Shab	-12817
▁Take	-12818
▁Toni	-12819
▁Troy	-12820
▁Vinc	-12821
▁chip	-12822
▁diab	-12823
▁eBay	-12824
▁hind	-12825
▁iRep	-12826
▁okay	-12827
▁pope	-12828
▁popp	-12829
▁pure	-12830
▁sang	-12831
ierrez	-12832
ighted	-12833
ported	-12834
regate	-12835
ricted	-12836
skirts	-12837
▁2003.	-12838
▁Abbey	-12839
▁Adela	-12840
▁Blair	-12841
▁Boyle	-12842
▁Comed	-12843
▁Const	-12844
▁Guill	-12845
▁Heavy	-12846
▁Kroos	-12847
▁Kunis	-12848
▁Lucky	-12849
▁McCoy	-12850
▁Nicky	-12851
▁Rosen	-12852
▁Saleh	-12853
▁Shakh	-12854
▁Storm	-12855
▁Tommy	-12856
▁Venus	-12857
▁Worth	-12858
▁Zhang	-12859
▁avail	-12860
▁basic	-12861
▁crane	-12862
▁eased	-12863
▁gates	-12864
▁ideal	-12865
▁pooch	-12866
▁purse	-12867
▁recip	-12868
▁revel	-12869
▁taste	-12870
▁tools	-12871
▁tooth	-12872
▁toxic	-12873
ensions	-12874
ocation	-12875
▁Alison	-12876
▁Caught	-12877
▁Desert	-12878
▁Fourth	-12879
▁Giants	-12880
▁Hansen	-12881
▁Julian	-12882
▁Meteor	-12883
▁Mobile	-12884
▁Motors	-12885
▁Vancou	-12886
▁barrel	-12887
▁brakes	-12888
▁column	-12889
▁elabor	-12890
▁expire	-12891
▁fierce	-12892
▁intrud	-12893
▁nights	-12894
▁robbed	-12895
▁serves	-12896
▁tablet	-12897
▁tricks	-12898
▁turbul	-12899
▁whilst	-12900
▁Beyonce	-12901
▁Centers	-12902
▁Disease	-12903
▁Manning	-12904
▁Massimo	-12905
▁Mission	-12906
▁Salford	-12907
▁abusing	-12908
▁acceler	-12909
▁appeals	-12910
▁belongs	-12911
▁consist	-12912
▁doubled	-12913
▁exhibit	-12914
▁flooded	-12915
▁instant	-12916
▁militia	-12917
▁robbers	-12918
▁strateg	-12919
▁tactics	-12920
▁univers	-12921
▁updates	-12922
▁Besiktas	-12923
▁Democrat	-12924
▁Gonzalez	-12925
▁Marouane	-12926
▁Mashable	-12927
▁Samantha	-12928
▁analysis	-12929
▁arranged	-12930
▁assaults	-12931
▁assessed	-12932
▁consumer	-12933
▁currency	-12934
▁firearms	-12935
▁isolated	-12936
▁missions	-12937
▁moderate	-12938
▁motorway	-12939
▁somewhat	-12940
▁stepping	-12941
▁teaching	-12942
▁tribunal	-12943
▁Gutierrez	-12944
▁Operation	-12945
▁Rotherham	-12946
▁Southgate	-12947
▁Vancouver	-12948
▁aggregate	-12949
▁associate	-12950
▁biography	-12951
▁consulate	-12952
▁intensive	-12953
▁marriages	-12954
▁outskirts	-12955
▁parachute	-12956
▁policemen	-12957
▁reception	-12958
▁referring	-12959
▁remainder	-12960
▁resisting	-12961
▁shortlist	-12962
amphetamine	-12963
▁Harlequins	-12964
▁administer	-12965
▁airstrikes	-12966
▁contracted	-12967
▁delivering	-12968
▁statistics	-12969
▁frustrating	-12970
▁inspiration	-12971
▁politicians	-12972
▁publication	-12973
▁restaurants	-12974
▁independence	-12975
▁manufacturer	-12976
▁requirements	-12977
▁confrontation	-12978
▁participating	-12979
".	-12980
17	-12981
Ex	-12982
IT	-12983
cm	-12984
:00	-12985
Don	-12986
EEK	-12987
his	-12988
hum	-12989
osc	-12990
uin	-12991
▁KC	-12992
▁KT	-12993
▁SP	-12994
▁Wi	-12995
▁ax	-12996
▁ly	-12997
acho	-12998
agli	-12999
agos	-13000
bala	-13001
chio	-13002
eary	-13003
east	-13004
expl	-13005
hunt	-13006
inum	-13007
oken	-13008
orms	-13009
page	-13010
rock	-13011
ugee	-13012
▁26.	-13013
▁3-3	-13014
▁46,	-13015
▁52,	-13016
▁Bod	-13017
▁DVD	-13018
▁Gin	-13019
▁Gos	-13020
▁Kab	-13021
▁Lex	-13022
▁Mau	-13023
▁Mis	-13024
▁Pur	-13025
▁Rou	-13026
▁Sul	-13027
▁gre	-13028
▁ram	-13029
▁sty	-13030
Neill	-13031
andan	-13032
faced	-13033
itted	-13034
oween	-13035
▁Bear	-13036
▁Idol	-13037
▁Judd	-13038
▁Odeg	-13039
▁Pete	-13040
▁Pont	-13041
▁Root	-13042
▁Ruiz	-13043
▁WEEK	-13044
▁logo	-13045
▁mour	-13046
▁pill	-13047
▁plum	-13048
▁rupt	-13049
▁slot	-13050
▁unac	-13051
ceived	-13052
ellers	-13053
terman	-13054
▁2002.	-13055
▁Ellen	-13056
▁Fresh	-13057
▁Jerry	-13058
▁Linda	-13059
▁Miley	-13060
▁Pedro	-13061
▁Sheen	-13062
▁Where	-13063
▁annoy	-13064
▁backs	-13065
▁balls	-13066
▁exist	-13067
▁gifts	-13068
▁handc	-13069
▁navig	-13070
▁pants	-13071
▁punch	-13072
▁recre	-13073
▁risks	-13074
▁Alfred	-13075
▁Ameobi	-13076
▁Arctic	-13077
▁Arnold	-13078
▁Garner	-13079
▁Louise	-13080
▁Mehsud	-13081
▁Panama	-13082
▁Refere	-13083
▁Robbie	-13084
▁anthem	-13085
▁blonde	-13086
▁boasts	-13087
▁bubble	-13088
▁bucket	-13089
▁button	-13090
▁closes	-13091
▁easier	-13092
▁emphas	-13093
▁heated	-13094
▁hugely	-13095
▁lodged	-13096
▁penned	-13097
▁python	-13098
▁regain	-13099
▁skiing	-13100
▁taught	-13101
ampering	-13102
aturally	-13103
tershire	-13104
▁Affleck	-13105
▁Coroner	-13106
▁Getting	-13107
▁Lindsey	-13108
▁Looking	-13109
▁Mahmoud	-13110
▁Members	-13111
▁Stefano	-13112
▁Vikings	-13113
▁avoided	-13114
▁catches	-13115
▁cooking	-13116
▁hardest	-13117
▁printed	-13118
▁recruit	-13119
▁resting	-13120
▁sailing	-13121
▁tallest	-13122
▁transit	-13123
▁Adelaide	-13124
▁Calderon	-13125
▁Deputies	-13126
▁Homeland	-13127
▁Odegaard	-13128
▁Reynolds	-13129
▁Selhurst	-13130
▁Shakhtar	-13131
▁Superior	-13132
▁accommod	-13133
▁backyard	-13134
▁boarding	-13135
▁centered	-13136
▁daylight	-13137
▁examiner	-13138
▁exposure	-13139
▁formerly	-13140
▁grandson	-13141
▁grateful	-13142
▁imminent	-13143
▁indecent	-13144
▁kilogram	-13145
▁offender	-13146
▁projects	-13147
▁searches	-13148
▁software	-13149
▁Deschamps	-13150
▁Guatemala	-13151
▁Halloween	-13152
▁Mountains	-13153
▁Parkinson	-13154
▁Telegraph	-13155
▁Universal	-13156
▁admitting	-13157
▁ambitions	-13158
▁encourage	-13159
▁forgotten	-13160
▁primarily	-13161
▁professor	-13162
▁releasing	-13163
▁sensitive	-13164
▁struggles	-13165
▁technique	-13166
▁Prosecutor	-13167
▁classified	-13168
▁discussion	-13169
▁excitement	-13170
▁fatalities	-13171
▁performers	-13172
▁distributed	-13173
▁participate	-13174
▁prestigious	-13175
▁distribution	-13176
▁endangerment	-13177
▁Environmental	-13178
▁communication	-13179
AR	-13180
Fi	-13181
du	-13182
-10	-13183
Bre	-13184
Off	-13185
Yes	-13186
awr	-13187
cup	-13188
enh	-13189
oft	-13190
pay	-13191
rot	-13192
uah	-13193
ubb	-13194
▁Ki	-13195
▁OD	-13196
▁Ov	-13197
▁PC	-13198
▁ce	-13199
alia	-13200
eney	-13201
gage	-13202
gone	-13203
igno	-13204
into	-13205
mary	-13206
opic	-13207
prus	-13208
quim	-13209
rise	-13210
shaw	-13211
uffy	-13212
uire	-13213
ukic	-13214
upid	-13215
ygen	-13216
▁(19	-13217
▁190	-13218
▁6.5	-13219
▁62,	-13220
▁Adv	-13221
▁Dir	-13222
▁Ext	-13223
▁FDA	-13224
▁Fah	-13225
▁Gud	-13226
▁Hop	-13227
▁Jal	-13228
▁Kas	-13229
▁Kum	-13230
▁Rut	-13231
▁Sad	-13232
▁Thr	-13233
▁Vel	-13234
▁WWE	-13235
▁dip	-13236
▁hub	-13237
▁phr	-13238
▁pir	-13239
▁sav	-13240
▁vom	-13241
Stone	-13242
acens	-13243
anton	-13244
arded	-13245
avour	-13246
brook	-13247
chief	-13248
icals	-13249
iesel	-13250
isers	-13251
ollah	-13252
storm	-13253
▁Boca	-13254
▁Bono	-13255
▁Cold	-13256
▁Dorn	-13257
▁Emma	-13258
▁Este	-13259
▁Flam	-13260
▁Kaka	-13261
▁Kris	-13262
▁Lima	-13263
▁Mert	-13264
▁Pant	-13265
▁Pier	-13266
▁Snow	-13267
▁Spot	-13268
▁Tory	-13269
▁Varg	-13270
▁Vern	-13271
▁Walt	-13272
▁Wing	-13273
▁arts	-13274
▁bang	-13275
▁buzz	-13276
▁carc	-13277
▁chee	-13278
▁dash	-13279
▁flip	-13280
▁infr	-13281
▁pige	-13282
▁riot	-13283
▁rope	-13284
▁slim	-13285
▁stir	-13286
▁tops	-13287
▁warn	-13288
▁wire	-13289
▁woke	-13290
Frozen	-13291
People	-13292
lining	-13293
orient	-13294
rafted	-13295
unning	-13296
▁Gabor	-13297
▁Kanye	-13298
▁Katie	-13299
▁Later	-13300
▁Maybe	-13301
▁Samir	-13302
▁Sharp	-13303
▁Stade	-13304
▁anger	-13305
▁bonus	-13306
▁cheek	-13307
▁crude	-13308
▁draft	-13309
▁flies	-13310
▁induc	-13311
▁liber	-13312
▁lists	-13313
▁scary	-13314
▁squee	-13315
efeated	-13316
ilation	-13317
inating	-13318
▁Athens	-13319
▁Attack	-13320
▁Baines	-13321
▁Blacks	-13322
▁Change	-13323
▁Cyprus	-13324
▁Gatlin	-13325
▁Gunmen	-13326
▁Leader	-13327
▁Marion	-13328
▁Marvel	-13329
▁Rosler	-13330
▁Turner	-13331
▁Willis	-13332
▁Zurich	-13333
▁hinted	-13334
▁hockey	-13335
▁horses	-13336
▁integr	-13337
▁joking	-13338
▁junior	-13339
▁pepper	-13340
▁pupils	-13341
▁revive	-13342
▁sprint	-13343
▁stroll	-13344
▁thumbs	-13345
▁urging	-13346
▁Beatles	-13347
▁Bennett	-13348
▁anybody	-13349
▁applaud	-13350
▁birdies	-13351
▁epicent	-13352
▁halfway	-13353
▁kidnapp	-13354
▁manhunt	-13355
▁marking	-13356
▁nervous	-13357
▁persons	-13358
▁placing	-13359
▁ranging	-13360
▁restore	-13361
▁talents	-13362
▁wickets	-13363
available	-13364
▁Contador	-13365
▁Patriots	-13366
▁Saracens	-13367
▁Somerset	-13368
▁departed	-13369
▁deserved	-13370
▁deserves	-13371
▁measured	-13372
▁relieved	-13373
▁remanded	-13374
▁renowned	-13375
▁sidewalk	-13376
▁wildfire	-13377
▁Jenkinson	-13378
▁Militants	-13379
▁Spokesman	-13380
▁accidents	-13381
▁aftermath	-13382
▁apologise	-13383
▁classroom	-13384
▁courtroom	-13385
▁diplomats	-13386
▁gathering	-13387
▁instantly	-13388
▁monitored	-13389
▁publisher	-13390
▁somewhere	-13391
▁stability	-13392
▁therefore	-13393
▁Louisville	-13394
▁accomplice	-13395
▁appreciate	-13396
▁challenger	-13397
▁initiative	-13398
▁newspapers	-13399
▁restricted	-13400
▁transplant	-13401
▁undercover	-13402
▁Development	-13403
▁Johannesburg	-13404
▁Unfortunately	-13405
▁demonstration	-13406
▁Superintendent	-13407
▁Monchengladbach	-13408
23	-13409
AD	-13410
Mr	-13411
oi	-13412
Ang	-13413
Ger	-13414
Mad	-13415
cor	-13416
equ	-13417
fax	-13418
gas	-13419
iem	-13420
roe	-13421
tes	-13422
▁84	-13423
▁89	-13424
▁91	-13425
▁LP	-13426
▁ME	-13427
avit	-13428
deep	-13429
holm	-13430
iffe	-13431
ilit	-13432
jaer	-13433
john	-13434
omed	-13435
orne	-13436
▁Alt	-13437
▁Cot	-13438
▁DUI	-13439
▁Dod	-13440
▁Hit	-13441
▁Kam	-13442
▁Kou	-13443
▁Mam	-13444
▁Sex	-13445
▁Vid	-13446
▁Vil	-13447
▁dre	-13448
▁pad	-13449
▁sch	-13450
▁vet	-13451
allah	-13452
ensus	-13453
iques	-13454
olera	-13455
onial	-13456
oslav	-13457
riani	-13458
shots	-13459
undee	-13460
ushes	-13461
years	-13462
▁Bird	-13463
▁Bour	-13464
▁Boys	-13465
▁Bros	-13466
▁Come	-13467
▁Deal	-13468
▁Elia	-13469
▁Evra	-13470
▁Fish	-13471
▁Kvit	-13472
▁Merc	-13473
▁Paso	-13474
▁Rams	-13475
▁Trav	-13476
▁Wawr	-13477
▁Woll	-13478
▁clar	-13479
▁glam	-13480
▁inqu	-13481
▁keys	-13482
▁kits	-13483
▁sket	-13484
▁stim	-13485
▁tool	-13486
arence	-13487
choice	-13488
emanja	-13489
icente	-13490
idavit	-13491
ridges	-13492
rified	-13493
rolled	-13494
thetic	-13495
▁Alder	-13496
▁Amber	-13497
▁Caval	-13498
▁Flood	-13499
▁Matic	-13500
▁Mesut	-13501
▁Point	-13502
▁Roche	-13503
▁Saido	-13504
▁Sales	-13505
▁Shore	-13506
▁Third	-13507
▁Walsh	-13508
▁Wazir	-13509
▁flour	-13510
▁humor	-13511
▁lands	-13512
▁nasty	-13513
▁optim	-13514
▁pills	-13515
▁print	-13516
▁sedan	-13517
▁slide	-13518
▁stall	-13519
▁sugar	-13520
▁vocal	-13521
rolling	-13522
▁70,000	-13523
▁Anders	-13524
▁Bishop	-13525
▁Downey	-13526
▁Dundee	-13527
▁Fallon	-13528
▁Global	-13529
▁Herald	-13530
▁Jarvis	-13531
▁Lauren	-13532
▁Oldham	-13533
▁Orient	-13534
▁Rivers	-13535
▁Schwar	-13536
▁Stosur	-13537
▁Zimmer	-13538
▁bodily	-13539
▁exceed	-13540
▁income	-13541
▁insist	-13542
▁ordeal	-13543
▁petrol	-13544
▁sector	-13545
▁shoots	-13546
▁speeds	-13547
▁staged	-13548
▁turtle	-13549
▁wished	-13550
ominated	-13551
▁Bahamas	-13552
▁Britann	-13553
▁Capello	-13554
▁Caulker	-13555
▁Classic	-13556
▁Claudio	-13557
▁Jeffrey	-13558
▁Monreal	-13559
▁Opinion	-13560
▁Potters	-13561
▁Reserve	-13562
▁Sabella	-13563
▁Sanders	-13564
▁Vicente	-13565
▁Village	-13566
▁Winston	-13567
▁acclaim	-13568
▁borders	-13569
▁decides	-13570
▁examine	-13571
▁fitting	-13572
▁intimid	-13573
▁nursing	-13574
▁regrets	-13575
▁rockets	-13576
▁shaking	-13577
▁tankers	-13578
▁tourism	-13579
▁Benedict	-13580
▁Shepherd	-13581
▁Warriors	-13582
▁Wawrinka	-13583
▁competed	-13584
▁cultural	-13585
▁goalless	-13586
▁grenades	-13587
▁homeland	-13588
▁lockdown	-13589
▁murdered	-13590
▁observed	-13591
▁ordering	-13592
▁ordinary	-13593
▁overhaul	-13594
▁promises	-13595
▁regarded	-13596
▁smashing	-13597
▁sparking	-13598
responsive	-13599
▁affection	-13600
▁athletics	-13601
▁attendant	-13602
▁carefully	-13603
▁companion	-13604
▁elaborate	-13605
▁epicenter	-13606
▁expanding	-13607
▁strengthe	-13608
▁submitted	-13609
▁travelers	-13610
▁volunteer	-13611
▁Waziristan	-13612
▁devastated	-13613
▁discipline	-13614
▁managerial	-13615
▁nomination	-13616
▁scientific	-13617
▁cooperation	-13618
▁exclusively	-13619
▁unavailable	-13620
▁investigator	-13621
")	-13622
May	-13623
fin	-13624
gey	-13625
imm	-13626
oto	-13627
pes	-13628
▁Dw	-13629
▁Ib	-13630
▁WS	-13631
amus	-13632
arts	-13633
asie	-13634
bank	-13635
chet	-13636
gral	-13637
hall	-13638
iman	-13639
ogne	-13640
omer	-13641
onic	-13642
oser	-13643
oyuz	-13644
teen	-13645
word	-13646
▁170	-13647
▁57,	-13648
▁74-	-13649
▁Ast	-13650
▁Dom	-13651
▁Emp	-13652
▁Fow	-13653
▁Hag	-13654
▁ICC	-13655
▁Int	-13656
▁Isa	-13657
▁Lif	-13658
▁Pav	-13659
▁RSP	-13660
▁Sac	-13661
▁Seg	-13662
▁Ski	-13663
▁Tol	-13664
▁Tul	-13665
▁Yed	-13666
▁ads	-13667
▁bug	-13668
▁cob	-13669
▁egg	-13670
▁env	-13671
▁hid	-13672
▁mor	-13673
▁mug	-13674
▁rot	-13675
World	-13676
after	-13677
enton	-13678
ibery	-13679
isive	-13680
nyder	-13681
stage	-13682
▁Ener	-13683
▁Glou	-13684
▁Know	-13685
▁Kolo	-13686
▁Lang	-13687
▁Lens	-13688
▁Lesc	-13689
▁Less	-13690
▁Nair	-13691
▁None	-13692
▁Pink	-13693
▁Pors	-13694
▁Prop	-13695
▁Roch	-13696
▁Temp	-13697
▁Zard	-13698
▁brew	-13699
▁bust	-13700
▁duck	-13701
▁gala	-13702
▁mart	-13703
▁rode	-13704
▁tire	-13705
andise	-13706
arians	-13707
assing	-13708
enburg	-13709
inding	-13710
intage	-13711
levard	-13712
overty	-13713
qualif	-13714
ucture	-13715
▁1,200	-13716
▁Adnan	-13717
▁Again	-13718
▁Dawes	-13719
▁Emily	-13720
▁GoPro	-13721
▁Hanks	-13722
▁Legia	-13723
▁Massa	-13724
▁Mikel	-13725
▁Money	-13726
▁Osama	-13727
▁Parks	-13728
▁Polit	-13729
▁Store	-13730
▁Tracy	-13731
▁Tweet	-13732
▁Users	-13733
▁Yahoo	-13734
▁boast	-13735
▁enorm	-13736
▁grade	-13737
▁maker	-13738
▁mansl	-13739
▁oblig	-13740
▁recru	-13741
▁robot	-13742
▁slain	-13743
▁sniff	-13744
▁steep	-13745
▁unlaw	-13746
itional	-13747
loading	-13748
minster	-13749
oration	-13750
▁Almost	-13751
▁Cambod	-13752
▁Diesel	-13753
▁Explos	-13754
▁Falcon	-13755
▁Filipe	-13756
▁Jenson	-13757
▁Marcus	-13758
▁McCart	-13759
▁Person	-13760
▁Ribery	-13761
▁Royals	-13762
▁Sophie	-13763
▁Tragic	-13764
▁Varane	-13765
▁biting	-13766
▁bosses	-13767
▁filing	-13768
▁fiscal	-13769
▁gloves	-13770
▁honors	-13771
▁mining	-13772
▁oxygen	-13773
▁pedest	-13774
▁powers	-13775
▁vacant	-13776
▁Bernard	-13777
▁Bolasie	-13778
▁Lescott	-13779
▁Melissa	-13780
▁Patrice	-13781
▁Reuters	-13782
▁Sarkozy	-13783
▁Shortly	-13784
▁Smoking	-13785
▁Stevens	-13786
▁Tsunami	-13787
▁Typhoon	-13788
▁bearing	-13789
▁branded	-13790
▁consequ	-13791
▁convent	-13792
▁expired	-13793
▁knowing	-13794
▁linking	-13795
▁planted	-13796
▁plummet	-13797
▁portion	-13798
▁poverty	-13799
▁punches	-13800
▁quarant	-13801
▁renewed	-13802
▁rumours	-13803
▁separat	-13804
▁shipped	-13805
▁smiling	-13806
▁sprayed	-13807
▁surfing	-13808
▁sympath	-13809
▁totally	-13810
▁trading	-13811
▁typical	-13812
▁unaware	-13813
▁Arrested	-13814
▁Brothers	-13815
▁Clarence	-13816
▁Kramaric	-13817
▁McClaren	-13818
▁Tropical	-13819
▁captures	-13820
▁disabled	-13821
▁donation	-13822
▁hijacked	-13823
▁improper	-13824
▁innocent	-13825
▁integral	-13826
▁mourning	-13827
▁oncoming	-13828
▁pilgrims	-13829
▁requests	-13830
▁retrieve	-13831
▁stopping	-13832
▁websites	-13833
▁Assistant	-13834
▁Britannia	-13835
▁Hungarian	-13836
▁anonymity	-13837
▁declaring	-13838
▁formation	-13839
▁indicates	-13840
▁lawmakers	-13841
▁milestone	-13842
▁unrelated	-13843
▁Christians	-13844
▁assessment	-13845
▁concussion	-13846
▁inspectors	-13847
▁situations	-13848
▁undefeated	-13849
▁effectively	-13850
▁endangering	-13851
▁forthcoming	-13852
▁installment	-13853
▁pornography	-13854
▁quarterback	-13855
▁Palestinians	-13856
▁manslaughter	-13857
▁overwhelming	-13858
▁participated	-13859
▁unsuccessful	-13860
▁welterweight	-13861
",	-13862
Am	-13863
GO	-13864
Go	-13865
Gu	-13866
gg	-13867
su	-13868
wd	-13869
zi	-13870
.50	-13871
:36	-13872
Who	-13873
enb	-13874
esb	-13875
ija	-13876
pre	-13877
rah	-13878
rum	-13879
▁(9	-13880
▁82	-13881
▁Ja	-13882
Hope	-13883
acey	-13884
ados	-13885
anie	-13886
ayed	-13887
azar	-13888
boat	-13889
edge	-13890
enda	-13891
etes	-13892
fare	-13893
hael	-13894
hift	-13895
ihad	-13896
lopp	-13897
olsk	-13898
oros	-13899
orus	-13900
rics	-13901
spec	-13902
ugly	-13903
▁49-	-13904
▁Baj	-13905
▁Chi	-13906
▁Cre	-13907
▁Ecc	-13908
▁Hez	-13909
▁McM	-13910
▁Sid	-13911
▁alt	-13912
▁bob	-13913
▁hed	-13914
▁nom	-13915
▁pap	-13916
▁pic	-13917
▁tea	-13918
▁tee	-13919
ammar	-13920
cheon	-13921
edusa	-13922
elaar	-13923
ellar	-13924
mandu	-13925
olese	-13926
rants	-13927
ungle	-13928
zukic	-13929
▁1986	-13930
▁1992	-13931
▁2017	-13932
▁2022	-13933
▁Adel	-13934
▁Brew	-13935
▁Hamm	-13936
▁Hisp	-13937
▁Jets	-13938
▁Keep	-13939
▁Lama	-13940
▁Lamb	-13941
▁Late	-13942
▁Mald	-13943
▁Mood	-13944
▁Norm	-13945
▁Plus	-13946
▁Pool	-13947
▁Scar	-13948
▁Sent	-13949
▁Sich	-13950
▁bees	-13951
▁bush	-13952
▁cope	-13953
▁epid	-13954
▁fasc	-13955
▁frog	-13956
▁glad	-13957
▁hadn	-13958
▁hood	-13959
▁laps	-13960
▁lewd	-13961
▁marg	-13962
▁nest	-13963
▁ours	-13964
▁subd	-13965
▁sued	-13966
backed	-13967
commun	-13968
cotics	-13969
ickers	-13970
ifford	-13971
rising	-13972
timore	-13973
▁2000,	-13974
▁2001.	-13975
▁2002,	-13976
▁Ashes	-13977
▁Banks	-13978
▁Birds	-13979
▁Boris	-13980
▁Close	-13981
▁Early	-13982
▁Julia	-13983
▁Klopp	-13984
▁Megan	-13985
▁Minne	-13986
▁Natal	-13987
▁Nickl	-13988
▁Owens	-13989
▁Owner	-13990
▁Reyes	-13991
▁Snoop	-13992
▁Solsk	-13993
▁Soyuz	-13994
▁Tests	-13995
▁Trump	-13996
▁Wells	-13997
▁Zenit	-13998
▁abdom	-13999
▁blows	-14000
▁brush	-14001
▁ditch	-14002
▁groom	-14003
▁maneu	-14004
▁shall	-14005
▁shift	-14006
However	-14007
amental	-14008
ignment	-14009
johnsen	-14010
ulating	-14011
▁Correa	-14012
▁Diarra	-14013
▁Easter	-14014
▁Econom	-14015
▁Elliot	-14016
▁Hunger	-14017
▁Master	-14018
▁Oxford	-14019
▁System	-14020
▁Victim	-14021
▁Yedlin	-14022
▁allege	-14023
▁ashore	-14024
▁corpse	-14025
▁diesel	-14026
▁explan	-14027
▁feline	-14028
▁fundra	-14029
▁landsc	-14030
▁mocked	-14031
▁piracy	-14032
▁plates	-14033
▁poster	-14034
▁poured	-14035
▁raided	-14036
▁refund	-14037
▁resist	-14038
▁serial	-14039
▁stones	-14040
▁treats	-14041
▁unused	-14042
Breaking	-14043
ensioner	-14044
official	-14045
▁Cellino	-14046
▁Chilean	-14047
▁Cologne	-14048
▁Details	-14049
▁Heights	-14050
▁Kvitova	-14051
▁Nemanja	-14052
▁Phillip	-14053
▁Porsche	-14054
▁Referee	-14055
▁Sichuan	-14056
▁Sources	-14057
▁Thunder	-14058
▁bicycle	-14059
▁bullets	-14060
▁cartels	-14061
▁closure	-14062
▁colours	-14063
▁deserve	-14064
▁explore	-14065
▁factors	-14066
▁filling	-14067
▁furious	-14068
▁illustr	-14069
▁inspire	-14070
▁nowhere	-14071
▁outdoor	-14072
▁realise	-14073
▁screens	-14074
▁senator	-14075
▁severed	-14076
▁sinking	-14077
▁tremend	-14078
struction	-14079
▁Building	-14080
▁Carlisle	-14081
▁Everyone	-14082
▁Francois	-14083
▁Italians	-14084
▁Lundberg	-14085
▁concerts	-14086
▁convince	-14087
▁creation	-14088
▁diabetes	-14089
▁distinct	-14090
▁feelings	-14091
▁function	-14092
▁infrastr	-14093
▁mistaken	-14094
▁pointing	-14095
▁programs	-14096
▁withdrew	-14097
girlfriend	-14098
▁Lampedusa	-14099
▁Mandzukic	-14100
▁Shawcross	-14101
▁Solskjaer	-14102
▁affidavit	-14103
▁apprehend	-14104
▁campaigns	-14105
▁chemicals	-14106
▁continent	-14107
▁departing	-14108
▁disrupted	-14109
▁expansion	-14110
▁inspected	-14111
▁poisoning	-14112
▁recalling	-14113
▁sculpture	-14114
▁shoulders	-14115
▁synthetic	-14116
▁voluntary	-14117
▁Ecclestone	-14118
▁Gudjohnsen	-14119
▁Hoffenheim	-14120
▁collecting	-14121
▁committing	-14122
▁eliminated	-14123
▁possessing	-14124
▁Agriculture	-14125
▁convictions	-14126
▁influential	-14127
▁merchandise	-14128
▁mountainous	-14129
▁demonstrations	-14130
▁methamphetamine	-14131
47	-14132
66	-14133
CH	-14134
GM	-14135
Jo	-14136
uo	-14137
-13	-14138
cat	-14139
cos	-14140
cut	-14141
esy	-14142
flo	-14143
gay	-14144
kov	-14145
lit	-14146
olt	-14147
pil	-14148
uda	-14149
ulu	-14150
usc	-14151
wyn	-14152
▁8-	-14153
▁9-	-14154
▁98	-14155
▁99	-14156
▁EU	-14157
▁ID	-14158
alky	-14159
arin	-14160
arus	-14161
bull	-14162
feit	-14163
hani	-14164
heid	-14165
hero	-14166
iera	-14167
igne	-14168
ints	-14169
lett	-14170
mere	-14171
neum	-14172
okie	-14173
orse	-14174
quil	-14175
seat	-14176
▁20.	-14177
▁21.	-14178
▁48-	-14179
▁56,	-14180
▁900	-14181
▁Bak	-14182
▁DeG	-14183
▁Fac	-14184
▁Fan	-14185
▁Hos	-14186
▁Imm	-14187
▁Pam	-14188
▁Ran	-14189
▁WBA	-14190
▁Zam	-14191
▁ber	-14192
▁bot	-14193
▁eld	-14194
▁fug	-14195
▁mad	-14196
▁ton	-14197
▁wip	-14198
,000.	-14199
Brien	-14200
adget	-14201
aleta	-14202
alion	-14203
endor	-14204
igger	-14205
onnes	-14206
ooker	-14207
ottom	-14208
qqani	-14209
ribed	-14210
three	-14211
uddin	-14212
▁1982	-14213
▁6-2,	-14214
▁Amal	-14215
▁Brav	-14216
▁Diaz	-14217
▁Dier	-14218
▁Dist	-14219
▁Doll	-14220
▁Gael	-14221
▁Jeep	-14222
▁Keen	-14223
▁LAPD	-14224
▁Lara	-14225
▁Mind	-14226
▁Muck	-14227
▁Munt	-14228
▁Okin	-14229
▁Popp	-14230
▁Sach	-14231
▁Saul	-14232
▁Toby	-14233
▁cans	-14234
▁copy	-14235
▁cudd	-14236
▁dish	-14237
▁enqu	-14238
▁gamb	-14239
▁grip	-14240
▁knot	-14241
▁limb	-14242
▁rept	-14243
▁subs	-14244
▁unle	-14245
Police	-14246
anches	-14247
believ	-14248
chenko	-14249
itanic	-14250
lasses	-14251
▁2003,	-14252
▁Abdel	-14253
▁Belle	-14254
▁Bynes	-14255
▁Chung	-14256
▁Cisse	-14257
▁Comic	-14258
▁Crash	-14259
▁Fried	-14260
▁Genoa	-14261
▁Gould	-14262
▁Malky	-14263
▁Palin	-14264
▁Place	-14265
▁Potro	-14266
▁Smart	-14267
▁audio	-14268
▁caret	-14269
▁drown	-14270
▁firms	-14271
▁legit	-14272
▁lifts	-14273
▁meals	-14274
▁panic	-14275
▁pneum	-14276
▁ridic	-14277
▁sings	-14278
▁stagg	-14279
▁sweep	-14280
▁tense	-14281
▁thumb	-14282
Rolling	-14283
agliari	-14284
angling	-14285
autical	-14286
billion	-14287
esacker	-14288
forward	-14289
founder	-14290
usement	-14291
▁Adidas	-14292
▁Bergen	-14293
▁Chadli	-14294
▁Cheryl	-14295
▁Denise	-14296
▁Engine	-14297
▁Fellow	-14298
▁Images	-14299
▁Lawson	-14300
▁Legend	-14301
▁Naples	-14302
▁Oscars	-14303
▁Photos	-14304
▁Ronnie	-14305
▁Sanogo	-14306
▁Senior	-14307
▁Stones	-14308
▁Thirty	-14309
▁Vargas	-14310
▁antics	-14311
▁autumn	-14312
▁doping	-14313
▁mentor	-14314
▁revers	-14315
▁rocked	-14316
▁sailor	-14317
▁signal	-14318
▁storms	-14319
ervatory	-14320
▁Allegri	-14321
▁Downing	-14322
▁Express	-14323
▁Freddie	-14324
▁Gilbert	-14325
▁Goodman	-14326
▁Haqqani	-14327
▁LeBaron	-14328
▁Luckily	-14329
▁Mascher	-14330
▁Spencer	-14331
▁Suleman	-14332
▁Suspect	-14333
▁Theatre	-14334
▁alleges	-14335
▁anymore	-14336
▁cracked	-14337
▁farmers	-14338
▁ignited	-14339
▁monkeys	-14340
▁netting	-14341
▁painful	-14342
▁rapidly	-14343
▁reforms	-14344
▁reunion	-14345
▁screams	-14346
▁segment	-14347
▁warming	-14348
▁Clements	-14349
▁Crawford	-14350
▁Governor	-14351
▁Heritage	-14352
▁Midlands	-14353
▁Nicholas	-14354
▁Slovakia	-14355
▁accusing	-14356
▁advances	-14357
▁assisted	-14358
▁compiled	-14359
▁contains	-14360
▁dialogue	-14361
▁employed	-14362
▁engulfed	-14363
▁enormous	-14364
▁imperson	-14365
▁networks	-14366
▁resolved	-14367
▁romantic	-14368
▁snatched	-14369
▁thousand	-14370
▁Baltimore	-14371
▁Billboard	-14372
▁Francesco	-14373
▁McCartney	-14374
▁Powerball	-14375
▁Professor	-14376
▁Represent	-14377
▁accompany	-14378
▁astronaut	-14379
▁audiences	-14380
▁centuries	-14381
▁deadliest	-14382
▁inquiries	-14383
▁insulting	-14384
▁partially	-14385
▁policeman	-14386
▁recession	-14387
▁spiritual	-14388
▁Ambassador	-14389
▁Petersburg	-14390
▁Television	-14391
▁attendants	-14392
▁endangered	-14393
▁immigrants	-14394
▁passionate	-14395
▁succession	-14396
▁Brotherhood	-14397
▁Mertesacker	-14398
▁Minneapolis	-14399
▁description	-14400
▁goalkeepers	-14401
▁governments	-14402
▁maintaining	-14403
▁suggestions	-14404
▁difficulties	-14405
▁intoxication	-14406
▁peacekeepers	-14407
▁assassination	-14408
▁comprehensive	-14409
▁parliamentary	-14410
▁understanding	-14411
▁Representatives	-14412
CS	-14413
GE	-14414
Se	-14415
TE	-14416
VI	-14417
eh	-14418
lb	-14419
45,	-14420
700	-14421
:50	-14422
AAF	-14423
Any	-14424
TSB	-14425
bat	-14426
ige	-14427
uca	-14428
umm	-14429
ysc	-14430
▁Et	-14431
▁NO	-14432
▁PM	-14433
▁TH	-14434
▁da	-14435
▁ma	-14436
Neal	-14437
agen	-14438
atab	-14439
auty	-14440
elve	-14441
ente	-14442
irut	-14443
isco	-14444
legg	-14445
leon	-14446
olar	-14447
pell	-14448
poin	-14449
sign	-14450
size	-14451
unta	-14452
vard	-14453
vere	-14454
walk	-14455
zhou	-14456
▁AMC	-14457
▁Ats	-14458
▁Cip	-14459
▁Cox	-14460
▁Dag	-14461
▁Fat	-14462
▁Gul	-14463
▁Hoy	-14464
▁Nag	-14465
▁Pic	-14466
▁Rai	-14467
▁Skr	-14468
▁fed	-14469
▁fog	-14470
▁hem	-14471
▁icy	-14472
,000-	-14473
Bride	-14474
Fifty	-14475
aniel	-14476
ellas	-14477
helor	-14478
issue	-14479
iston	-14480
leted	-14481
ooter	-14482
rella	-14483
rious	-14484
sized	-14485
stars	-14486
tario	-14487
uevas	-14488
urred	-14489
usive	-14490
▁1973	-14491
▁1977	-14492
▁Batt	-14493
▁Bert	-14494
▁Cart	-14495
▁Demb	-14496
▁Dere	-14497
▁Done	-14498
▁Emin	-14499
▁Gamb	-14500
▁Gull	-14501
▁Hawk	-14502
▁Huss	-14503
▁Kand	-14504
▁Kell	-14505
▁Keny	-14506
▁Kurt	-14507
▁Levy	-14508
▁NTSB	-14509
▁Pine	-14510
▁Pole	-14511
▁Sang	-14512
▁Till	-14513
▁Vale	-14514
▁Virg	-14515
▁cove	-14516
▁craw	-14517
▁fees	-14518
▁malf	-14519
▁quar	-14520
▁salt	-14521
▁soap	-14522
▁spew	-14523
PEOPLE	-14524
agging	-14525
attled	-14526
ismith	-14527
ousers	-14528
uesome	-14529
▁2004.	-14530
▁Chand	-14531
▁Clear	-14532
▁Depay	-14533
▁Dimit	-14534
▁Drake	-14535
▁Eindh	-14536
▁Going	-14537
▁Holid	-14538
▁Joint	-14539
▁Lloyd	-14540
▁Noble	-14541
▁Usain	-14542
▁Vidic	-14543
▁Years	-14544
▁accur	-14545
▁argue	-14546
▁backp	-14547
▁bread	-14548
▁bulld	-14549
▁dated	-14550
▁draws	-14551
▁males	-14552
▁poker	-14553
▁saves	-14554
▁warns	-14555
itschko	-14556
lifting	-14557
rential	-14558
suicide	-14559
tenance	-14560
▁Abbott	-14561
▁Beirut	-14562
▁Bucket	-14563
▁Butler	-14564
▁Deeney	-14565
▁Doctor	-14566
▁Factor	-14567
▁Manaus	-14568
▁Newton	-14569
▁Pearce	-14570
▁Planet	-14571
▁Resort	-14572
▁Schult	-14573
▁Tanzan	-14574
▁Verona	-14575
▁Zarate	-14576
▁clever	-14577
▁crater	-14578
▁drives	-14579
▁hungry	-14580
▁impose	-14581
▁indeed	-14582
▁jumper	-14583
▁ladies	-14584
▁midday	-14585
▁noting	-14586
▁psychi	-14587
▁racial	-14588
▁roster	-14589
▁smooth	-14590
▁triple	-14591
▁wooded	-14592
boarding	-14593
▁Defence	-14594
▁Hawkins	-14595
▁Mucklow	-14596
▁Ontario	-14597
▁Persian	-14598
▁Raphael	-14599
▁Studios	-14600
▁Wyoming	-14601
▁affects	-14602
▁busiest	-14603
▁cancell	-14604
▁fiancee	-14605
▁lighter	-14606
▁monthly	-14607
▁operate	-14608
▁predict	-14609
▁privile	-14610
▁profits	-14611
▁purpose	-14612
▁refugee	-14613
▁repairs	-14614
▁shotgun	-14615
▁smuggle	-14616
▁sponsor	-14617
▁stamped	-14618
▁touring	-14619
▁travels	-14620
▁typhoon	-14621
▁vintage	-14622
▁Cagliari	-14623
▁Cambodia	-14624
▁Carnival	-14625
▁Cipriani	-14626
▁Confeder	-14627
▁Eliaquim	-14628
▁Romanian	-14629
▁Zabaleta	-14630
▁carriage	-14631
▁crushing	-14632
▁destined	-14633
▁disposal	-14634
▁elements	-14635
▁evacuate	-14636
▁explains	-14637
▁knocking	-14638
▁labelled	-14639
▁marching	-14640
▁maritime	-14641
▁plotting	-14642
▁predomin	-14643
▁relaxing	-14644
▁unlawful	-14645
▁volatile	-14646
▁Alexandre	-14647
▁Boulevard	-14648
▁Eindhoven	-14649
▁Kathmandu	-14650
▁Klitschko	-14651
▁Zimmerman	-14652
▁automatic	-14653
▁commuters	-14654
▁decorated	-14655
▁disqualif	-14656
▁excessive	-14657
▁filmmaker	-14658
▁fishermen	-14659
▁kilograms	-14660
▁literally	-14661
▁negotiate	-14662
▁passports	-14663
▁pneumonia	-14664
▁protected	-14665
▁publicity	-14666
▁televised	-14667
▁undergone	-14668
▁Liberation	-14669
▁Supporters	-14670
▁affordable	-14671
▁autographs	-14672
▁confirming	-14673
▁containers	-14674
▁contractor	-14675
▁courthouse	-14676
▁difficulty	-14677
▁electronic	-14678
▁interviews	-14679
▁personally	-14680
▁presidents	-14681
▁qualifiers	-14682
▁remembered	-14683
▁substances	-14684
▁sunglasses	-14685
▁explanation	-14686
▁malfunction	-14687
▁supermarket	-14688
▁Professional	-14689
▁unresponsive	-14690
▁neighborhoods	-14691
▁photographers	-14692
▁rehabilitation	-14693
8-	-14694
DP	-14695
El	-14696
IF	-14697
OK	-14698
wr	-14699
-14	-14700
Ter	-14701
atz	-14702
ded	-14703
iza	-14704
pts	-14705
rac	-14706
uto	-14707
wen	-14708
▁DJ	-14709
▁GB	-14710
▁Yu	-14711
▁ru	-14712
Girl	-14713
Last	-14714
anim	-14715
empl	-14716
folk	-14717
heet	-14718
hers	-14719
ievo	-14720
iott	-14721
irlo	-14722
oufl	-14723
path	-14724
pine	-14725
that	-14726
ubil	-14727
▁1.3	-14728
▁1.8	-14729
▁48,	-14730
▁52-	-14731
▁56-	-14732
▁Aer	-14733
▁Alm	-14734
▁FIA	-14735
▁Fay	-14736
▁Fly	-14737
▁Fun	-14738
▁IBF	-14739
▁Kil	-14740
▁Ved	-14741
▁cin	-14742
▁pul	-14743
▁rav	-14744
▁unt	-14745
While	-14746
achim	-14747
aider	-14748
alese	-14749
angle	-14750
aning	-14751
aston	-14752
court	-14753
iddle	-14754
ihuah	-14755
illes	-14756
ingle	-14757
inoff	-14758
isode	-14759
meter	-14760
odore	-14761
otman	-14762
peare	-14763
power	-14764
quets	-14765
raugh	-14766
rians	-14767
start	-14768
umble	-14769
ustin	-14770
▁1985	-14771
▁Anna	-14772
▁Auss	-14773
▁Brig	-14774
▁Comb	-14775
▁Cory	-14776
▁Fast	-14777
▁Have	-14778
▁Hock	-14779
▁Ivor	-14780
▁MORE	-14781
▁Mell	-14782
▁Moon	-14783
▁Nova	-14784
▁Rene	-14785
▁Sana	-14786
▁Tata	-14787
▁Upon	-14788
▁Wick	-14789
▁Yale	-14790
▁cows	-14791
▁crab	-14792
▁dual	-14793
▁eyew	-14794
▁hell	-14795
▁lucr	-14796
▁pond	-14797
▁seiz	-14798
▁turf	-14799
▁tuss	-14800
esting	-14801
heless	-14802
infeld	-14803
iverse	-14804
marked	-14805
quillo	-14806
ugging	-14807
usters	-14808
▁Bever	-14809
▁Bouch	-14810
▁Braun	-14811
▁Bravo	-14812
▁Buddh	-14813
▁Carey	-14814
▁Dalai	-14815
▁Denis	-14816
▁Elche	-14817
▁Houth	-14818
▁Ideye	-14819
▁Isaac	-14820
▁Leroy	-14821
▁Lopes	-14822
▁Montg	-14823
▁Moody	-14824
▁Solis	-14825
▁Swind	-14826
▁Verde	-14827
▁blown	-14828
▁culpr	-14829
▁files	-14830
▁funct	-14831
▁grace	-14832
▁magic	-14833
▁metro	-14834
▁nause	-14835
▁renov	-14836
▁scrap	-14837
▁seeds	-14838
▁stays	-14839
▁sweat	-14840
ihuahua	-14841
inental	-14842
ivalent	-14843
pellier	-14844
▁16,000	-14845
▁Bielik	-14846
▁Chievo	-14847
▁Design	-14848
▁Dinamo	-14849
▁Franch	-14850
▁Fuller	-14851
▁Hayden	-14852
▁Mirror	-14853
▁Prague	-14854
▁Shakes	-14855
▁Spears	-14856
▁Virgil	-14857
▁allies	-14858
▁anyway	-14859
▁beside	-14860
▁birdie	-14861
▁blames	-14862
▁cheese	-14863
▁clinch	-14864
▁downed	-14865
▁ensued	-14866
▁facial	-14867
▁lyrics	-14868
▁medall	-14869
▁naming	-14870
▁outlet	-14871
▁partly	-14872
▁reject	-14873
▁relate	-14874
▁snakes	-14875
▁therap	-14876
▁trials	-14877
▁unfair	-14878
▁youths	-14879
cription	-14880
▁Alderwe	-14881
▁Augusta	-14882
▁Conserv	-14883
▁Dickson	-14884
▁Element	-14885
▁Evening	-14886
▁Germain	-14887
▁Hampden	-14888
▁McBride	-14889
▁Meadows	-14890
▁Muntari	-14891
▁Newtown	-14892
▁Robinho	-14893
▁Shannon	-14894
▁aground	-14895
▁assists	-14896
▁boarded	-14897
▁chapter	-14898
▁cholera	-14899
▁clipped	-14900
▁confisc	-14901
▁discrim	-14902
▁exports	-14903
▁flipped	-14904
▁handing	-14905
▁matched	-14906
▁monarch	-14907
▁revenue	-14908
▁sealing	-14909
▁silence	-14910
▁speaker	-14911
▁studied	-14912
▁swiftly	-14913
▁swooped	-14914
▁tractor	-14915
▁venture	-14916
▁vessels	-14917
President	-14918
ibilities	-14919
▁Accident	-14920
▁Filipino	-14921
▁Irishman	-14922
▁Mirallas	-14923
▁Montreal	-14924
▁Naismith	-14925
▁Rochdale	-14926
▁Toulouse	-14927
▁Zhejiang	-14928
▁adoption	-14929
▁commuter	-14930
▁constant	-14931
▁epidemic	-14932
▁focusing	-14933
▁hampered	-14934
▁payments	-14935
▁proceeds	-14936
▁reflects	-14937
▁removing	-14938
▁republic	-14939
▁reserves	-14940
▁stressed	-14941
▁touching	-14942
▁trousers	-14943
▁Strootman	-14944
▁amusement	-14945
▁arraigned	-14946
▁belonging	-14947
▁captained	-14948
▁captivity	-14949
▁champagne	-14950
▁considers	-14951
▁contender	-14952
▁democracy	-14953
▁equalised	-14954
▁essential	-14955
▁installed	-14956
▁lucrative	-14957
▁makeshift	-14958
▁occupants	-14959
▁performer	-14960
▁radiation	-14961
▁slaughter	-14962
▁surviving	-14963
▁thrilling	-14964
▁violating	-14965
▁Carrington	-14966
▁Englishman	-14967
▁Samaritans	-14968
▁cigarettes	-14969
▁compromise	-14970
▁delegation	-14971
▁deployment	-14972
▁describing	-14973
▁equivalent	-14974
▁extremists	-14975
▁friendlies	-14976
▁insurgency	-14977
▁schoolgirl	-14978
▁suggestion	-14979
▁Montpellier	-14980
▁Shakespeare	-14981
▁concentrate	-14982
▁electronics	-14983
▁Conservation	-14984
▁northwestern	-14985
▁organisation	-14986
▁significantly	-14987
▁administrative	-14988
▁discrimination	-14989
0-	-14990
22	-14991
La	-14992
je	-14993
:16	-14994
Eng	-14995
bad	-14996
des	-14997
fil	-14998
iaz	-14999
ipa	-15000
irk	-15001
mal	-15002
nip	-15003
oac	-15004
oga	-15005
ogy	-15006
rat	-15007
roc	-15008
try	-15009
ugo	-15010
via	-15011
▁IM	-15012
▁IT	-15013
▁PA	-15014
ahaw	-15015
alle	-15016
ango	-15017
atta	-15018
azzi	-15019
ells	-15020
enst	-15021
ilia	-15022
irai	-15023
isty	-15024
lash	-15025
moon	-15026
omon	-15027
othe	-15028
oyle	-15029
vant	-15030
wind	-15031
▁(10	-15032
▁(11	-15033
▁(18	-15034
▁4.5	-15035
▁53-	-15036
▁65-	-15037
▁72-	-15038
▁Aid	-15039
▁Alg	-15040
▁Bab	-15041
▁Ble	-15042
▁Cer	-15043
▁Kyr	-15044
▁Lok	-15045
▁Lud	-15046
▁Map	-15047
▁Rah	-15048
▁Sho	-15049
▁Vie	-15050
▁Wen	-15051
▁Zun	-15052
▁boo	-15053
▁coy	-15054
▁tap	-15055
▁tug	-15056
asant	-15057
atini	-15058
clear	-15059
crowd	-15060
elves	-15061
ifies	-15062
islav	-15063
isman	-15064
lahor	-15065
omers	-15066
prise	-15067
raged	-15068
shine	-15069
uming	-15070
watch	-15071
xious	-15072
▁1987	-15073
▁6-4,	-15074
▁Alam	-15075
▁Band	-15076
▁Beng	-15077
▁Berk	-15078
▁Body	-15079
▁Boro	-15080
▁Dark	-15081
▁Dawn	-15082
▁Dian	-15083
▁Drew	-15084
▁Educ	-15085
▁Fitz	-15086
[...]
